{
  "version": "1.0",
  "truncation": null,
  "padding": null,
  "added_tokens": [],
  "normalizer": null,
  "pre_tokenizer": {
    "type": "ByteLevel",
    "add_prefix_space": true,
    "trim_offsets": true,
    "use_regex": true
  },
  "post_processor": {
    "type": "ByteLevel",
    "add_prefix_space": true,
    "trim_offsets": true,
    "use_regex": true
  },
  "decoder": {
    "type": "ByteLevel",
    "add_prefix_space": true,
    "trim_offsets": true,
    "use_regex": true
  },
  "model": {
    "type": "BPE",
    "dropout": null,
    "unk_token": null,
    "continuing_subword_prefix": null,
    "end_of_word_suffix": null,
    "fuse_unk": false,
    "byte_fallback": false,
    "ignore_merges": false,
    "vocab": {
      "!": 0,
      "\"": 1,
      "#": 2,
      "$": 3,
      "%": 4,
      "&": 5,
      "'": 6,
      "(": 7,
      ")": 8,
      "*": 9,
      "+": 10,
      ",": 11,
      "-": 12,
      ".": 13,
      "/": 14,
      "0": 15,
      "1": 16,
      "2": 17,
      "3": 18,
      "4": 19,
      "5": 20,
      "6": 21,
      "7": 22,
      "8": 23,
      "9": 24,
      ":": 25,
      ";": 26,
      "<": 27,
      "=": 28,
      ">": 29,
      "?": 30,
      "@": 31,
      "A": 32,
      "B": 33,
      "C": 34,
      "D": 35,
      "E": 36,
      "F": 37,
      "G": 38,
      "H": 39,
      "I": 40,
      "J": 41,
      "K": 42,
      "L": 43,
      "M": 44,
      "N": 45,
      "O": 46,
      "P": 47,
      "Q": 48,
      "R": 49,
      "S": 50,
      "T": 51,
      "U": 52,
      "V": 53,
      "W": 54,
      "X": 55,
      "Y": 56,
      "Z": 57,
      "[": 58,
      "\\": 59,
      "]": 60,
      "^": 61,
      "_": 62,
      "`": 63,
      "a": 64,
      "b": 65,
      "c": 66,
      "d": 67,
      "e": 68,
      "f": 69,
      "g": 70,
      "h": 71,
      "i": 72,
      "j": 73,
      "k": 74,
      "l": 75,
      "m": 76,
      "n": 77,
      "o": 78,
      "p": 79,
      "q": 80,
      "r": 81,
      "s": 82,
      "t": 83,
      "u": 84,
      "v": 85,
      "w": 86,
      "x": 87,
      "y": 88,
      "z": 89,
      "{": 90,
      "|": 91,
      "}": 92,
      "~": 93,
      "¡": 94,
      "¢": 95,
      "£": 96,
      "¤": 97,
      "¥": 98,
      "¦": 99,
      "§": 100,
      "¨": 101,
      "©": 102,
      "ª": 103,
      "«": 104,
      "¬": 105,
      "®": 106,
      "¯": 107,
      "°": 108,
      "±": 109,
      "²": 110,
      "³": 111,
      "´": 112,
      "µ": 113,
      "¶": 114,
      "·": 115,
      "¸": 116,
      "¹": 117,
      "º": 118,
      "»": 119,
      "¼": 120,
      "½": 121,
      "¾": 122,
      "¿": 123,
      "À": 124,
      "Á": 125,
      "Â": 126,
      "Ã": 127,
      "Ä": 128,
      "Å": 129,
      "Æ": 130,
      "Ç": 131,
      "È": 132,
      "É": 133,
      "Ê": 134,
      "Ë": 135,
      "Ì": 136,
      "Í": 137,
      "Î": 138,
      "Ï": 139,
      "Ð": 140,
      "Ñ": 141,
      "Ò": 142,
      "Ó": 143,
      "Ô": 144,
      "Õ": 145,
      "Ö": 146,
      "×": 147,
      "Ø": 148,
      "Ù": 149,
      "Ú": 150,
      "Û": 151,
      "Ü": 152,
      "Ý": 153,
      "Þ": 154,
      "ß": 155,
      "à": 156,
      "á": 157,
      "â": 158,
      "ã": 159,
      "ä": 160,
      "å": 161,
      "æ": 162,
      "ç": 163,
      "è": 164,
      "é": 165,
      "ê": 166,
      "ë": 167,
      "ì": 168,
      "í": 169,
      "î": 170,
      "ï": 171,
      "ð": 172,
      "ñ": 173,
      "ò": 174,
      "ó": 175,
      "ô": 176,
      "õ": 177,
      "ö": 178,
      "÷": 179,
      "ø": 180,
      "ù": 181,
      "ú": 182,
      "û": 183,
      "ü": 184,
      "ý": 185,
      "þ": 186,
      "ÿ": 187,
      "Ā": 188,
      "ā": 189,
      "Ă": 190,
      "ă": 191,
      "Ą": 192,
      "ą": 193,
      "Ć": 194,
      "ć": 195,
      "Ĉ": 196,
      "ĉ": 197,
      "Ċ": 198,
      "ċ": 199,
      "Č": 200,
      "č": 201,
      "Ď": 202,
      "ď": 203,
      "Đ": 204,
      "đ": 205,
      "Ē": 206,
      "ē": 207,
      "Ĕ": 208,
      "ĕ": 209,
      "Ė": 210,
      "ė": 211,
      "Ę": 212,
      "ę": 213,
      "Ě": 214,
      "ě": 215,
      "Ĝ": 216,
      "ĝ": 217,
      "Ğ": 218,
      "ğ": 219,
      "Ġ": 220,
      "ġ": 221,
      "Ģ": 222,
      "ģ": 223,
      "Ĥ": 224,
      "ĥ": 225,
      "Ħ": 226,
      "ħ": 227,
      "Ĩ": 228,
      "ĩ": 229,
      "Ī": 230,
      "ī": 231,
      "Ĭ": 232,
      "ĭ": 233,
      "Į": 234,
      "į": 235,
      "İ": 236,
      "ı": 237,
      "Ĳ": 238,
      "ĳ": 239,
      "Ĵ": 240,
      "ĵ": 241,
      "Ķ": 242,
      "ķ": 243,
      "ĸ": 244,
      "Ĺ": 245,
      "ĺ": 246,
      "Ļ": 247,
      "ļ": 248,
      "Ľ": 249,
      "ľ": 250,
      "Ŀ": 251,
      "ŀ": 252,
      "Ł": 253,
      "ł": 254,
      "Ń": 255,
      "Ġt": 256,
      "he": 257,
      "Ġa": 258,
      "Ġs": 259,
      "nd": 260,
      "Ġw": 261,
      "Ġthe": 262,
      "ed": 263,
      "Ġb": 264,
      "Ġto": 265,
      "Ġand": 266,
      "ĠT": 267,
      "Ġh": 268,
      "Ġf": 269,
      "in": 270,
      "Ġwa": 271,
      "re": 272,
      "it": 273,
      "ou": 274,
      "Ġl": 275,
      "Ġd": 276,
      "Ġc": 277,
      "Ġp": 278,
      "ĠThe": 279,
      "ay": 280,
      "Ġm": 281,
      "er": 282,
      "Ġwas": 283,
      "om": 284,
      "Ġhe": 285,
      "is": 286,
      "ar": 287,
      "Ġn": 288,
      "im": 289,
      "on": 290,
      "Ġsa": 291,
      "id": 292,
      "ll": 293,
      "ĠS": 294,
      "Ġha": 295,
      "Ġg": 296,
      "at": 297,
      "ing": 298,
      "ot": 299,
      "en": 300,
      "an": 301,
      "le": 302,
      "or": 303,
      "end": 304,
      "Ġ\"": 305,
      "ir": 306,
      "ĠH": 307,
      "of": 308,
      "am": 309,
      "ĠThey": 310,
      "et": 311,
      "Ġit": 312,
      "Ġth": 313,
      "ig": 314,
      "ĠHe": 315,
      "Ġin": 316,
      "il": 317,
      "Ġpl": 318,
      "ow": 319,
      "ver": 320,
      "ri": 321,
      "ut": 322,
      "Ġbe": 323,
      "Ġu": 324,
      "Ġsaid": 325,
      "Ġplay": 326,
      "ĠO": 327,
      "ith": 328,
      "ĠTim": 329,
      "Ġday": 330,
      "Ġwith": 331,
      "pp": 332,
      "ĠOn": 333,
      "Ġy": 334,
      "oo": 335,
      "ked": 336,
      "Ġr": 337,
      "ĠI": 338,
      "ĠShe": 339,
      "Ġher": 340,
      "ex": 341,
      "ce": 342,
      "ld": 343,
      "Ġhis": 344,
      "Ġst": 345,
      "ke": 346,
      "ĠL": 347,
      "Ġbig": 348,
      "nt": 349,
      "ck": 350,
      "Ġyou": 351,
      "very": 352,
      "st": 353,
      "ve": 354,
      "ĠB": 355,
      "Ġon": 356,
      "un": 357,
      "Ġhapp": 358,
      "riend": 359,
      "Ġfriend": 360,
      "all": 361,
      "ily": 362,
      "ext": 363,
      "ĠM": 364,
      "Ġthey": 365,
      "oft": 366,
      "Ġwe": 367,
      "Ġhad": 368,
      "Ġnot": 369,
      "Ġli": 370,
      "Ġup": 371,
      "her": 372,
      "Ġwant": 373,
      "Ġof": 374,
      "ad": 375,
      "itt": 376,
      "Ġ<": 377,
      "|>": 378,
      "endoft": 379,
      "Ġ<|": 380,
      "endoftext": 381,
      "se": 382,
      "Ġdo": 383,
      "Ġe": 384,
      "Ġhappy": 385,
      "ent": 386,
      "Ġvery": 387,
      "es": 388,
      "Ġthat": 389,
      "Ġsaw": 390,
      "ĠLily": 391,
      "ĠOne": 392,
      "'s": 393,
      "ĠA": 394,
      "ould": 395,
      "Ġmom": 396,
      "Ġfor": 397,
      "Ġsh": 398,
      "ittle": 399,
      "Ġlittle": 400,
      "ĠTom": 401,
      "Ġshe": 402,
      "ch": 403,
      "ime": 404,
      "Ġnam": 405,
      ".\"": 406,
      "Ġtime": 407,
      "Ġk": 408,
      "ound": 409,
      "Ġso": 410,
      "Ġthere": 411,
      "Ġnamed": 412,
      "Ġsm": 413,
      "Ġbo": 414,
      "Ġwere": 415,
      "Ġne": 416,
      "Ġwanted": 417,
      "Ġbut": 418,
      "out": 419,
      "Ġfriends": 420,
      "ved": 421,
      "!\"": 422,
      "ht": 423,
      "ird": 424,
      "el": 425,
      "Ġbird": 426,
      "al": 427,
      "Ġan": 428,
      "ake": 429,
      "ĠIt": 430,
      "Ġtoo": 431,
      "ome": 432,
      "ug": 433,
      "ĠĊ": 434,
      "ide": 435,
      "Ġwent": 436,
      "Ġwh": 437,
      "Ġhel": 438,
      "ĠOnce": 439,
      "Ġis": 440,
      "Ġall": 441,
      "Ġhelp": 442,
      "ue": 443,
      "Ġloo": 444,
      "Ġlo": 445,
      "ter": 446,
      "Ġupon": 447,
      "ry": 448,
      "ore": 449,
      "ind": 450,
      "Ġfun": 451,
      "get": 452,
      "Ġtoy": 453,
      "ill": 454,
      "ame": 455,
      "Ġas": 456,
      "Ġat": 457,
      "ra": 458,
      "Ġj": 459,
      "Ġdid": 460,
      "gether": 461,
      "Ġre": 462,
      "ur": 463,
      "Ġo": 464,
      "Ġse": 465,
      "Ġtogether": 466,
      "ack": 467,
      "Ġcat": 468,
      "ly": 469,
      "Ġtre": 470,
      "ood": 471,
      "ic": 472,
      "ted": 473,
      "Ġdog": 474,
      "Ġcould": 475,
      "Ġcan": 476,
      "Ġtheir": 477,
      "ard": 478,
      "ec": 479,
      "ark": 480,
      "Ġgir": 481,
      "Ġplayed": 482,
      "Ġhim": 483,
      "Ġball": 484,
      "?\"": 485,
      "Ġgirl": 486,
      "Ġro": 487,
      "way": 488,
      "Ġgo": 489,
      "hed": 490,
      "my": 491,
      "Ġare": 492,
      "Ġout": 493,
      "Ġle": 494,
      "Ġfr": 495,
      "ain": 496,
      "ĠBut": 497,
      "hen": 498,
      "Ġkn": 499,
      "Ġthem": 500,
      "um": 501,
      "'t": 502,
      "ax": 503,
      "Ġsad": 504,
      "ĠW": 505,
      "ĠSue": 506,
      "ul": 507,
      "Ġboy": 508,
      "Ġtree": 509,
      "other": 510,
      "Ġhave": 511,
      "Ġman": 512,
      "ĠMax": 513,
      "Ġcl": 514,
      "Ġloved": 515,
      "Ġlooked": 516,
      "oug": 517,
      "Ġfound": 518,
      "Ġsp": 519,
      "Ġstar": 520,
      "one": 521,
      "hing": 522,
      "Ġsc": 523,
      "Ġback": 524,
      "own": 525,
      "ĠBen": 526,
      "are": 527,
      "Ġlike": 528,
      "ful": 529,
      "side": 530,
      "Ġme": 531,
      "Ġbec": 532,
      "ĠSam": 533,
      "Ġpark": 534,
      "ight": 535,
      "ong": 536,
      "Ġcar": 537,
      "ĠJ": 538,
      "op": 539,
      "elt": 540,
      "Ġliked": 541,
      "Ġwould": 542,
      "Ġmake": 543,
      "round": 544,
      "Ġla": 545,
      "Ġfa": 546,
      "Ġfelt": 547,
      "You": 548,
      "ell": 549,
      "Ġsee": 550,
      "omet": 551,
      "Ġasked": 552,
      "ag": 553,
      "Ġnew": 554,
      "Ġno": 555,
      "ice": 556,
      "ouse": 557,
      "Ġstarted": 558,
      "ared": 559,
      "Ġcame": 560,
      "Ġal": 561,
      "Ġother": 562,
      "ought": 563,
      "iled": 564,
      "ĠF": 565,
      "Ġsomet": 566,
      "Ġag": 567,
      "Ġgood": 568,
      "Ġsmall": 569,
      "ss": 570,
      "Ġbr": 571,
      "Ġsmiled": 572,
      "Ġsay": 573,
      "ried": 574,
      "ade": 575,
      "ĠSp": 576,
      "ings": 577,
      "ob": 578,
      "Ġwor": 579,
      "ĠSpot": 580,
      "Ġfind": 581,
      "ia": 582,
      "Ġaway": 583,
      "ty": 584,
      "Ġput": 585,
      "Ġex": 586,
      "Ġwhat": 587,
      "Ġsomething": 588,
      "Ġfrom": 589,
      "Ġmade": 590,
      "Ġthought": 591,
      "ened": 592,
      "Ġhome": 593,
      "Ġplaying": 594,
      "Ġco": 595,
      "ook": 596,
      "Ġevery": 597,
      "Ġwal": 598,
      "Ġmu": 599,
      "uc": 600,
      "ach": 601,
      "arn": 602,
      "Ġran": 603,
      "ile": 604,
      "ie": 605,
      "ĠMia": 606,
      "ave": 607,
      "Ġagain": 608,
      "Ġsome": 609,
      "Ġlaug": 610,
      "dd": 611,
      "Ġhouse": 612,
      "Ġdown": 613,
      "Ġfl": 614,
      "king": 615,
      "Ġtook": 616,
      "Ġscared": 617,
      "Ġpr": 618,
      "ny": 619,
      "ure": 620,
      "Ġtoys": 621,
      "Ġlearn": 622,
      "ĠYou": 623,
      "if": 624,
      "Ġwill": 625,
      "Ġbox": 626,
      "ick": 627,
      "ret": 628,
      "ab": 629,
      "ep": 630,
      "Ġmy": 631,
      "Ġaround": 632,
      "Ġthings": 633,
      "Ġyour": 634,
      "oud": 635,
      "Ġbl": 636,
      "uck": 637,
      "Ġwhen": 638,
      "ish": 639,
      "Ġlived": 640,
      "Ġfe": 641,
      "Ġthen": 642,
      "Ġsun": 643,
      "as": 644,
      "Ġsw": 645,
      "ĠSo": 646,
      ",\"": 647,
      "ĠMom": 648,
      "Ġch": 649,
      "us": 650,
      "pped": 651,
      "Ġab": 652,
      "ank": 653,
      "Ġget": 654,
      "ucy": 655,
      "ump": 656,
      "Ġlot": 657,
      "ist": 658,
      "ĠLucy": 659,
      "ĠD": 660,
      "oth": 661,
      "ap": 662,
      "Ġtried": 663,
      "Ġknow": 664,
      "Ġsays": 665,
      "Ġgot": 666,
      "ited": 667,
      "Ġwho": 668,
      "Th": 669,
      "Ġkne": 670,
      "ust": 671,
      "Ġmany": 672,
      "ĠBob": 673,
      "nder": 674,
      "Ġint": 675,
      "Ġabout": 676,
      "Ġpret": 677,
      "Ġdec": 678,
      "Ġany": 679,
      "Ġred": 680,
      "ive": 681,
      "Ġknew": 682,
      "ace": 683,
      "ous": 684,
      "Ġmore": 685,
      "ise": 686,
      "Ġv": 687,
      "Ġcare": 688,
      "ally": 689,
      "Ġpic": 690,
      "au": 691,
      "qu": 692,
      "Ġhug": 693,
      "Ġlearned": 694,
      "Ġpo": 695,
      "Ġwater": 696,
      "fter": 697,
      "Ġbecame": 698,
      "Ġbest": 699,
      "ĠAnd": 700,
      "ause": 701,
      "Ġop": 702,
      "Ġgre": 703,
      "ĠE": 704,
      "Ġexc": 705,
      "urp": 706,
      "ways": 707,
      "âĢ": 708,
      "Ġoutside": 709,
      "Ġlaughed": 710,
      "Ġlook": 711,
      "Ġalways": 712,
      "Ġdecid": 713,
      "Ġshow": 714,
      "Ġun": 715,
      "ant": 716,
      "Ġroom": 717,
      "fe": 718,
      "Ġdecided": 719,
      "Ġho": 720,
      "Ġbecause": 721,
      "Ġinto": 722,
      "Ġeat": 723,
      "ite": 724,
      "Ġjump": 725,
      "Ġpe": 726,
      "Ġboth": 727,
      "ers": 728,
      "ĠThen": 729,
      "Ġdad": 730,
      "udd": 731,
      "Ġke": 732,
      "Ġone": 733,
      "ĠWhen": 734,
      "nn": 735,
      "Ġthis": 736,
      "Ġexcited": 737,
      "Ġfast": 738,
      "Ġnice": 739,
      "Ġfeel": 740,
      "Yes": 741,
      "Ġrun": 742,
      "Ġlong": 743,
      "ĠAnn": 744,
      "Ġtold": 745,
      "Ġsk": 746,
      "Ġam": 747,
      "urpr": 748,
      "our": 749,
      "Ġinside": 750,
      "ull": 751,
      "Ġtr": 752,
      "Ġsurpr": 753,
      "Ġmo": 754,
      "ĠHis": 755,
      "ink": 756,
      "Ġpretty": 757,
      "iny": 758,
      "Ġsor": 759,
      "Ġtake": 760,
      "ĠFr": 761,
      "og": 762,
      "ĠC": 763,
      "Ġsl": 764,
      "Ġeach": 765,
      "Ġgave": 766,
      "hat": 767,
      "Ġmuch": 768,
      "Ġgra": 769,
      "lew": 770,
      "Ġrock": 771,
      "Ġhow": 772,
      "Ġstr": 773,
      "ara": 774,
      "imal": 775,
      "Ġanimal": 776,
      "ged": 777,
      "Ġneed": 778,
      "Ġthan": 779,
      "ĠAnna": 780,
      "ĠAmy": 781,
      "ven": 782,
      "etter": 783,
      "Ġtow": 784,
      "Ġor": 785,
      "ĠAs": 786,
      "Ġunder": 787,
      "ess": 788,
      "Ġold": 789,
      "Ġsorry": 790,
      "ge": 791,
      "ised": 792,
      "ro": 793,
      "urt": 794,
      "ĠSara": 795,
      "Ġcle": 796,
      "Ġfish": 797,
      "Ġwalked": 798,
      "Ġclo": 799,
      "and": 800,
      "here": 801,
      "Ġbear": 802,
      "ase": 803,
      "ast": 804,
      "Ġhand": 805,
      "urn": 806,
      "ĠWe": 807,
      "Ġkind": 808,
      "Ġhappened": 809,
      "Ġjust": 810,
      "Ġflow": 811,
      "ĠHer": 812,
      "Ġfood": 813,
      "Ġlist": 814,
      "Ġdidn": 815,
      "Ġte": 816,
      "Ġanimals": 817,
      "Ġhig": 818,
      "Ġnear": 819,
      "Ġwat": 820,
      "ĠIn": 821,
      "Ġide": 822,
      "Ġtry": 823,
      "ched": 824,
      "Ġsky": 825,
      "ine": 826,
      "Ġsn": 827,
      "pl": 828,
      "ving": 829,
      "Ġfi": 830,
      "Ġus": 831,
      "ĠFrom": 832,
      "Ġidea": 833,
      "Ġbetter": 834,
      "Ġbug": 835,
      "Ġheard": 836,
      "gry": 837,
      "Ġits": 838,
      "Ġtw": 839,
      "Ġlet": 840,
      "pec": 841,
      "ate": 842,
      "able": 843,
      "ff": 844,
      "Ġen": 845,
      "Ġcareful": 846,
      "Ġshare": 847,
      "Ġif": 848,
      "Thank": 849,
      "Ġfly": 850,
      "Ġstor": 851,
      "ial": 852,
      "Ġflew": 853,
      "more": 854,
      "Ġanymore": 855,
      "Ġspec": 856,
      "Ġspecial": 857,
      "ion": 858,
      "Ġcom": 859,
      "Ġlots": 860,
      "Ġnever": 861,
      "Ġby": 862,
      "lf": 863,
      "ream": 864,
      "Ġdan": 865,
      "Ġbu": 866,
      "Ġfo": 867,
      "Ġwind": 868,
      "Ġdon": 869,
      "ĠEvery": 870,
      "Ġtal": 871,
      "Ġclean": 872,
      "ort": 873,
      "Ġgr": 874,
      "Ġlove": 875,
      "rm": 876,
      "ber": 877,
      "Ġend": 878,
      "ople": 879,
      "Ġeven": 880,
      "Ġmag": 881,
      "ĠK": 882,
      "Ġhard": 883,
      "Ġshiny": 884,
      "udden": 885,
      "Ġfore": 886,
      "Ġover": 887,
      "Ġcake": 888,
      "ak": 889,
      "Ġbook": 890,
      "Ġcol": 891,
      "Ġturn": 892,
      "Ġfam": 893,
      "Ġbad": 894,
      "Ġsafe": 895,
      "Ġafter": 896,
      "ady": 897,
      "uddenly": 898,
      "Ġpeople": 899,
      "Ġproud": 900,
      "Ġsurprised": 901,
      "pected": 902,
      "Let": 903,
      "Ġhigh": 904,
      "Ġcu": 905,
      "Ġhurt": 906,
      "Ġcome": 907,
      "imb": 908,
      "arden": 909,
      "Ġdoor": 910,
      "Ġgarden": 911,
      "bb": 912,
      "Ġground": 913,
      "Ġopened": 914,
      "Ġpicked": 915,
      "Ġloud": 916,
      "Ġclimb": 917,
      "expected": 918,
      "Ġunexpected": 919,
      "hy": 920,
      "Ġgl": 921,
      "Ġche": 922,
      "ild": 923,
      "Ġim": 924,
      "Ġgive": 925,
      "Ġway": 926,
      "ail": 927,
      "'m": 928,
      "Ġthanked": 929,
      "Ġcolor": 930,
      "Ġblue": 931,
      "Ġstill": 932,
      "Ġever": 933,
      "Ġhugged": 934,
      "ĠP": 935,
      "Ġcall": 936,
      "Ġfar": 937,
      "ip": 938,
      "No": 939,
      "Ġoff": 940,
      "Ġmagic": 941,
      "iz": 942,
      "age": 943,
      "ough": 944,
      "ummy": 945,
      "Ġjumped": 946,
      "Ġshould": 947,
      "Ġfamily": 948,
      "Ġpar": 949,
      "ool": 950,
      "Ġkid": 951,
      "Ġsmile": 952,
      "ĠJo": 953,
      "hes": 954,
      "uff": 955,
      "Ġplace": 956,
      "kay": 957,
      "Ġwalk": 958,
      "Ġnow": 959,
      "ct": 960,
      "Ġgreat": 961,
      "em": 962,
      "Ġqu": 963,
      "ĠSuddenly": 964,
      "les": 965,
      "Ġstrong": 966,
      "Ġstay": 967,
      "Ġunt": 968,
      "Ġsto": 969,
      "aut": 970,
      "Ġforest": 971,
      "ture": 972,
      "ane": 973,
      "Ġbra": 974,
      "itty": 975,
      "Ġfrog": 976,
      "Ġbro": 977,
      "Ġuntil": 978,
      "Ġbeaut": 979,
      "dy": 980,
      "Ġsqu": 981,
      "Ġstick": 982,
      "Ġnext": 983,
      "Ġboat": 984,
      "lease": 985,
      "ning": 986,
      "ĠSally": 987,
      "ĠAfter": 988,
      "ĠN": 989,
      "Ġhappily": 990,
      "Ġlisten": 991,
      "aking": 992,
      "Ġkids": 993,
      "Ġtra": 994,
      "ĠKitty": 995,
      "ies": 996,
      "iful": 997,
      "Ġbeautiful": 998,
      "Ġapp": 999,
      "Ġhelped": 1000,
      "Ġdra": 1001,
      "Ġshowed": 1002,
      "Ġclos": 1003,
      "be": 1004,
      "Ġimp": 1005,
      "Ġstory": 1006,
      "unny": 1007,
      "Ġwhile": 1008,
      "Ġtown": 1009,
      "rel": 1010,
      "pt": 1011,
      "Ġrain": 1012,
      "ress": 1013,
      "Ġpicture": 1014,
      "ĠAt": 1015,
      "oy": 1016,
      "Ġbeing": 1017,
      "Ġrem": 1018,
      "Ġeveryone": 1019,
      "ary": 1020,
      "ree": 1021,
      "Ġmor": 1022,
      "ĠR": 1023,
      "Ġhat": 1024,
      "Ġcalled": 1025,
      "Ġmet": 1026,
      "Ġstopped": 1027,
      "Ġad": 1028,
      "Ġgame": 1029,
      "Ġwo": 1030,
      "Can": 1031,
      "Ġangry": 1032,
      "ger": 1033,
      "uffy": 1034,
      "Ġsoft": 1035,
      "ĠFin": 1036,
      "Ġopen": 1037,
      "Ġtruck": 1038,
      "Ġkeep": 1039,
      "Ġcry": 1040,
      "Ġyummy": 1041,
      "ĠTh": 1042,
      "Ġlost": 1043,
      "Ġbed": 1044,
      "ĠLet": 1045,
      "Ġwarm": 1046,
      "by": 1047,
      "vent": 1048,
      "ĠJack": 1049,
      "Ġbrave": 1050,
      "Ġmouse": 1051,
      "Ġate": 1052,
      "oon": 1053,
      "ished": 1054,
      "Ġde": 1055,
      "It": 1056,
      "fore": 1057,
      "Ġdoll": 1058,
      "so": 1059,
      "Ġcouldn": 1060,
      "Ġwatch": 1061,
      "Ġleave": 1062,
      "Ġalso": 1063,
      "dded": 1064,
      "Ġfell": 1065,
      "Ġgreen": 1066,
      "Ġface": 1067,
      "Ġtwo": 1068,
      "ĠFl": 1069,
      "gan": 1070,
      "iss": 1071,
      "Ġflowers": 1072,
      "bit": 1073,
      "ĠâĢ": 1074,
      "ble": 1075,
      "Ġnoise": 1076,
      "What": 1077,
      "abbit": 1078,
      "irst": 1079,
      "owl": 1080,
      "Ġwhere": 1081,
      "az": 1082,
      "ock": 1083,
      "Ġsoon": 1084,
      "self": 1085,
      "Ġslide": 1086,
      "Ġrabbit": 1087,
      "Ġhole": 1088,
      "ĠG": 1089,
      "Ġbefore": 1090,
      "irrel": 1091,
      "Ġpus": 1092,
      "ired": 1093,
      "Ġsat": 1094,
      "illy": 1095,
      "Ġhear": 1096,
      "ĠFluffy": 1097,
      "Ġuse": 1098,
      "Ġpa": 1099,
      "Ġkept": 1100,
      "Hi": 1101,
      "ĠâĢľ": 1102,
      "âĢĿ": 1103,
      "Ġsquirrel": 1104,
      "ear": 1105,
      "ma": 1106,
      "Ġnodded": 1107,
      "ĠNow": 1108,
      "Ġexpl": 1109,
      "Ġstore": 1110,
      "Ġcook": 1111,
      "Ġhands": 1112,
      "Look": 1113,
      "Ġbirds": 1114,
      "Ġpain": 1115,
      "Ġgoing": 1116,
      "Ġfunny": 1117,
      "Ġhaving": 1118,
      "day": 1119,
      "Ġsing": 1120,
      "aybe": 1121,
      "uch": 1122,
      "Ġey": 1123,
      "aug": 1124,
      "Ġcatch": 1125,
      "aught": 1126,
      "ĠCan": 1127,
      "uit": 1128,
      "Ġyell": 1129,
      "Ġthink": 1130,
      "leep": 1131,
      "Ġcra": 1132,
      "Ġfin": 1133,
      "Ġbre": 1134,
      "Ġfix": 1135,
      "Ġtired": 1136,
      "Ġbunny": 1137,
      "Ġused": 1138,
      "Ġlooking": 1139,
      "Ġbus": 1140,
      "ange": 1141,
      "air": 1142,
      "Ġwork": 1143,
      "Ġwr": 1144,
      "ting": 1145,
      "Ġour": 1146,
      "Ġpull": 1147,
      "We": 1148,
      "Ġthr": 1149,
      "That": 1150,
      "thing": 1151,
      "Ġwait": 1152,
      "Ġkit": 1153,
      "Ġsound": 1154,
      "Ġjo": 1155,
      "Ġhas": 1156,
      "Ġmean": 1157,
      "Ġpond": 1158,
      "ember": 1159,
      "Ġbeh": 1160,
      "Ġdr": 1161,
      "Ġsunny": 1162,
      "led": 1163,
      "Ġothers": 1164,
      "Ġask": 1165,
      "ng": 1166,
      "chen": 1167,
      "Ġkitchen": 1168,
      "Ġtalk": 1169,
      "Ġflo": 1170,
      "Ġdif": 1171,
      "Ġpie": 1172,
      "rew": 1173,
      "Ġhead": 1174,
      "Ġreal": 1175,
      "Ġfirst": 1176,
      "Ġtri": 1177,
      "Ġmommy": 1178,
      "Ġeyes": 1179,
      "ello": 1180,
      "Ġimport": 1181,
      "Hello": 1182,
      "Mom": 1183,
      "Ġfav": 1184,
      "ĠDo": 1185,
      "joy": 1186,
      "Ġz": 1187,
      "Ġremember": 1188,
      "Ġright": 1189,
      "Ġflower": 1190,
      "Ġcon": 1191,
      "Ġmess": 1192,
      "ĠWh": 1193,
      "Ġparty": 1194,
      "Ġcold": 1195,
      "Ġvo": 1196,
      "Ġswe": 1197,
      "ious": 1198,
      "ft": 1199,
      "Ġsand": 1200,
      "ac": 1201,
      "ath": 1202,
      "orn": 1203,
      "Ġrace": 1204,
      "Ġcuri": 1205,
      "imes": 1206,
      "Ġimportant": 1207,
      "Ġduck": 1208,
      "Ġmoral": 1209,
      "Ġshared": 1210,
      "zy": 1211,
      "ount": 1212,
      "Ġice": 1213,
      "Ġokay": 1214,
      "Ġadvent": 1215,
      "Ġworked": 1216,
      "llow": 1217,
      "irt": 1218,
      "Ġenjoy": 1219,
      "Ġdress": 1220,
      "Ġbright": 1221,
      "Ġmaking": 1222,
      "Ġcurious": 1223,
      "Ġown": 1224,
      "ĠDad": 1225,
      "Ġtall": 1226,
      "Ġhop": 1227,
      "reed": 1228,
      "Ġhid": 1229,
      "Ġfavor": 1230,
      "Ġri": 1231,
      "hn": 1232,
      "Ġsleep": 1233,
      "Ġdis": 1234,
      "Ġfavorite": 1235,
      "Wow": 1236,
      "Ġthing": 1237,
      "Ġbegan": 1238,
      "Ġmon": 1239,
      "Ġbag": 1240,
      "Ġhill": 1241,
      "Ġcla": 1242,
      "Don": 1243,
      "Ġdraw": 1244,
      "Ġrest": 1245,
      "Ġhere": 1246,
      "Ġyard": 1247,
      "ĠThis": 1248,
      "Ġtell": 1249,
      "ĠJohn": 1250,
      "ster": 1251,
      "Ġwatched": 1252,
      "que": 1253,
      "Ġfollow": 1254,
      "Ġmove": 1255,
      "Ġbel": 1256,
      "ect": 1257,
      "Ġcut": 1258,
      "Ġnight": 1259,
      "Ġagreed": 1260,
      "Ġpick": 1261,
      "co": 1262,
      "Ġblock": 1263,
      "Ġhun": 1264,
      "aper": 1265,
      "lly": 1266,
      "Ġstop": 1267,
      "Ġbehind": 1268,
      "Ġsurprise": 1269,
      "ied": 1270,
      "Ġsho": 1271,
      "Ġhot": 1272,
      "Ġtable": 1273,
      "Ġgrass": 1274,
      "Ġworry": 1275,
      "Ġdark": 1276,
      "Ġtrees": 1277,
      "Ġvoice": 1278,
      "Ġwalking": 1279,
      "fere": 1280,
      "Ġfloor": 1281,
      "Ġfarm": 1282,
      "Ġlion": 1283,
      "Ġtop": 1284,
      "Ġdiffere": 1285,
      "Ġplease": 1286,
      "ĠThat": 1287,
      "ĠMr": 1288,
      "Ġru": 1289,
      "Ġsong": 1290,
      "ĠBobo": 1291,
      "Ġbutter": 1292,
      "Ġtail": 1293,
      "Ġsweet": 1294,
      "Ġshout": 1295,
      "Ġcolors": 1296,
      "Ġread": 1297,
      "Ġlady": 1298,
      "Ġforg": 1299,
      "isy": 1300,
      "ĠJane": 1301,
      "Ġleaves": 1302,
      "Ġcloser": 1303,
      "ign": 1304,
      "Ġcars": 1305,
      "ĠTimmy": 1306,
      "Ġturned": 1307,
      "Ġneeded": 1308,
      "Ġtast": 1309,
      "Why": 1310,
      "aring": 1311,
      "Ġwood": 1312,
      "Ġcried": 1313,
      "Ġdifferent": 1314,
      "Ġlaugh": 1315,
      "Ġdel": 1316,
      "Ġpiece": 1317,
      "âĢĻ": 1318,
      "ered": 1319,
      "Ġroll": 1320,
      "Ġadventure": 1321,
      "Ġfire": 1322,
      "Ġdoes": 1323,
      "ike": 1324,
      "Ġcr": 1325,
      "Ġhungry": 1326,
      "Ġhair": 1327,
      "Ġpaper": 1328,
      "Ġfeeling": 1329,
      "Ġyellow": 1330,
      "Ġfull": 1331,
      "bo": 1332,
      "Ġprin": 1333,
      "Ġtouch": 1334,
      "Ġwet": 1335,
      "Ġfriendly": 1336,
      "Ġper": 1337,
      "oom": 1338,
      "ken": 1339,
      "cked": 1340,
      "ĠMommy": 1341,
      "ached": 1342,
      "Ġswing": 1343,
      "Ġfruit": 1344,
      "ient": 1345,
      "Ġbroken": 1346,
      "Ġready": 1347,
      "ĠAll": 1348,
      "bye": 1349,
      "ppy": 1350,
      "Ġprom": 1351,
      "Ġanother": 1352,
      "Ġlight": 1353,
      "Ġpretend": 1354,
      "Ġdance": 1355,
      "ater": 1356,
      "Ġclimbed": 1357,
      "where": 1358,
      "Ġlistened": 1359,
      "Ġdanc": 1360,
      "Ġrunning": 1361,
      "Ġonly": 1362,
      "Ġplan": 1363,
      "Ġgone": 1364,
      "Ġswim": 1365,
      "bbed": 1366,
      "Ġtrain": 1367,
      "ila": 1368,
      "ndma": 1369,
      "sh": 1370,
      "Ġclose": 1371,
      "av": 1372,
      "art": 1373,
      "Ġsmell": 1374,
      "aby": 1375,
      "Ġamaz": 1376,
      "Ġhold": 1377,
      "Ġblocks": 1378,
      "Ġwonder": 1379,
      "Ġrepl": 1380,
      "ĠEveryone": 1381,
      "ĠLila": 1382,
      "Ġbutterf": 1383,
      "Ġsees": 1384,
      "Ġreached": 1385,
      "Ġwall": 1386,
      "Ġpu": 1387,
      "oney": 1388,
      "Ġslow": 1389,
      "Ġhelping": 1390,
      "Ġdri": 1391,
      "Ġcream": 1392,
      "Ġcool": 1393,
      "Ġglad": 1394,
      "af": 1395,
      "Ġant": 1396,
      "Ġless": 1397,
      "Ġbeen": 1398,
      "Ġgoodbye": 1399,
      "Ġac": 1400,
      "Ġfight": 1401,
      "ather": 1402,
      "ey": 1403,
      "Ġpushed": 1404,
      "iced": 1405,
      "Ġfair": 1406,
      "Ġmust": 1407,
      "Ġhide": 1408,
      "Ġmoment": 1409,
      "Ġwindow": 1410,
      "Ġsit": 1411,
      "Ġar": 1412,
      "Ġballoon": 1413,
      "Ġsnow": 1414,
      "Ġchild": 1415,
      "Ġexplore": 1416,
      "Ġwished": 1417,
      "Ġbaby": 1418,
      "Ġdone": 1419,
      "Ġwag": 1420,
      "Ġste": 1421,
      "Ġbuy": 1422,
      "Ġstuck": 1423,
      "Ġperf": 1424,
      "ĠJust": 1425,
      "ĠSoon": 1426,
      "Ġthank": 1427,
      "Ġmight": 1428,
      "icy": 1429,
      "Ġname": 1430,
      "ized": 1431,
      "Ġtrying": 1432,
      "Ġbit": 1433,
      "Ġcoming": 1434,
      "Ġbar": 1435,
      "Ġquick": 1436,
      "Ġfall": 1437,
      "Ġapple": 1438,
      "ĠTo": 1439,
      "Ġscary": 1440,
      "ash": 1441,
      "Ġlooks": 1442,
      "Ġbuild": 1443,
      "Ġdoing": 1444,
      "irty": 1445,
      "Ġwin": 1446,
      "Ġunderst": 1447,
      "aisy": 1448,
      "Ġdin": 1449,
      "Ġdream": 1450,
      "ĠThere": 1451,
      "Ġdirty": 1452,
      "Ġheld": 1453,
      "ames": 1454,
      "Ġbooks": 1455,
      "Ġmar": 1456,
      "Ġbutterfly": 1457,
      "Ġleft": 1458,
      "Ġshouted": 1459,
      "Ġcount": 1460,
      "Ġreplied": 1461,
      "avy": 1462,
      "Ġreach": 1463,
      "Ġtiny": 1464,
      "Ġthrough": 1465,
      "ott": 1466,
      "Ġdro": 1467,
      "Ġwhy": 1468,
      "Ġair": 1469,
      "Ġbran": 1470,
      "Ġland": 1471,
      "key": 1472,
      "Ġthree": 1473,
      "Ġpulled": 1474,
      "Ġspl": 1475,
      "Ġgrow": 1476,
      "Ġtreat": 1477,
      "Ġbrother": 1478,
      "Ġwise": 1479,
      "Ġwoods": 1480,
      "Ġsure": 1481,
      "'re": 1482,
      "Ġchair": 1483,
      "ix": 1484,
      "Ġmat": 1485,
      "ins": 1486,
      "Ġseen": 1487,
      "Ġpink": 1488,
      "Ġclapped": 1489,
      "Ġplant": 1490,
      "ely": 1491,
      "Ġowl": 1492,
      "Ġcup": 1493,
      "ield": 1494,
      "Ġsometimes": 1495,
      "andy": 1496,
      "Ġfill": 1497,
      "Ġcloud": 1498,
      "ask": 1499,
      "Ġswam": 1500,
      "outh": 1501,
      "Ġjob": 1502,
      "Ġcolorful": 1503,
      "ĠInside": 1504,
      "Ġremembered": 1505,
      "Ġbigger": 1506,
      "Ġnest": 1507,
      "Ġmouth": 1508,
      "Okay": 1509,
      "Ġlesson": 1510,
      "Ġjoin": 1511,
      "Ġcre": 1512,
      "ph": 1513,
      "oup": 1514,
      "room": 1515,
      "Ġwaved": 1516,
      "uddy": 1517,
      "Ġgrabbed": 1518,
      "Ġstayed": 1519,
      "Oh": 1520,
      "Ġpaint": 1521,
      "Ġclot": 1522,
      "Ġcont": 1523,
      "Ġclothes": 1524,
      "ower": 1525,
      "ĠDaisy": 1526,
      "Ġwaited": 1527,
      "Ġquickly": 1528,
      "cle": 1529,
      "Ġword": 1530,
      "Ġbroke": 1531,
      "ucky": 1532,
      "Ġgames": 1533,
      "Ġcast": 1534,
      "ĠBuddy": 1535,
      "Ġblew": 1536,
      "Ġgent": 1537,
      "ĠFinally": 1538,
      "ĠWhile": 1539,
      "Ġenjoyed": 1540,
      "Ġnoticed": 1541,
      "ries": 1542,
      "ation": 1543,
      "Ġset": 1544,
      "Ġlikes": 1545,
      "Ġpictures": 1546,
      "Ġmus": 1547,
      "ton": 1548,
      "de": 1549,
      "Ġsea": 1550,
      "Ġheavy": 1551,
      "Ġalone": 1552,
      "Ġgif": 1553,
      "asure": 1554,
      "Ġanything": 1555,
      "Ġspot": 1556,
      "Ġmiss": 1557,
      "Ġhopped": 1558,
      "Ġworld": 1559,
      "Ġturns": 1560,
      "orm": 1561,
      "Ġyear": 1562,
      "der": 1563,
      "Ġbott": 1564,
      "Ġpat": 1565,
      "Ġpot": 1566,
      "This": 1567,
      "Ġpen": 1568,
      "lc": 1569,
      "ĠSarah": 1570,
      "Ġmix": 1571,
      "Ġarm": 1572,
      "Ġbike": 1573,
      "Ġtight": 1574,
      "ĠTommy": 1575,
      "Ġeverywhere": 1576,
      "Ġwon": 1577,
      "Ġtower": 1578,
      "Ġthrew": 1579,
      "Ġhimself": 1580,
      "Ġfollowed": 1581,
      "Ġride": 1582,
      "man": 1583,
      "ere": 1584,
      "pe": 1585,
      "less": 1586,
      "Ġju": 1587,
      "Ġje": 1588,
      "amp": 1589,
      "ape": 1590,
      "Ġcomp": 1591,
      "Ġkey": 1592,
      "eddy": 1593,
      "row": 1594,
      "ĠWhat": 1595,
      "\".": 1596,
      "Ġwhite": 1597,
      "ctor": 1598,
      "Ġwrong": 1599,
      "Ġmakes": 1600,
      "Ġbreak": 1601,
      "Ġblack": 1602,
      "arent": 1603,
      "ee": 1604,
      "ner": 1605,
      "Ġdeep": 1606,
      "thy": 1607,
      "Ġmusic": 1608,
      "ĠEm": 1609,
      "Ġpol": 1610,
      "Ġdelic": 1611,
      "cess": 1612,
      "ued": 1613,
      "Ġforgot": 1614,
      "Ġbee": 1615,
      "Ġparent": 1616,
      "olly": 1617,
      "Ġcastle": 1618,
      "ves": 1619,
      "Ġem": 1620,
      "Do": 1621,
      "iet": 1622,
      "Ġwear": 1623,
      "Ġhit": 1624,
      "Ġve": 1625,
      "ister": 1626,
      "oun": 1627,
      "Ġquiet": 1628,
      "Ġround": 1629,
      "ĠBilly": 1630,
      "ance": 1631,
      "Ġstu": 1632,
      "Ġdanced": 1633,
      "Ġvis": 1634,
      "ully": 1635,
      "Ġwants": 1636,
      "Ġleaf": 1637,
      "Ġmonster": 1638,
      "Ġnap": 1639,
      "Ġunderstand": 1640,
      "ang": 1641,
      "Ġbowl": 1642,
      "os": 1643,
      "rot": 1644,
      "Ġbor": 1645,
      "Ġtalked": 1646,
      "itten": 1647,
      "ren": 1648,
      "Ġdry": 1649,
      "Ġfaster": 1650,
      "Ġcookies": 1651,
      "ĠGra": 1652,
      "ĠJoe": 1653,
      "Ġbrought": 1654,
      "fully": 1655,
      "Ġleg": 1656,
      "ross": 1657,
      "Ġmum": 1658,
      "zz": 1659,
      "Ġside": 1660,
      "Ġsign": 1661,
      "Ġsmart": 1662,
      "cy": 1663,
      "Ġrocks": 1664,
      "Ġsomeone": 1665,
      "Ġpoin": 1666,
      "Ġsec": 1667,
      "Ġsharing": 1668,
      "Ġfox": 1669,
      "Ġwell": 1670,
      "Ġres": 1671,
      "Ġrel": 1672,
      "Ġhappen": 1673,
      "Ġbutton": 1674,
      "Ġbranch": 1675,
      "Ġreally": 1676,
      "Ġfinished": 1677,
      "ence": 1678,
      "ards": 1679,
      "Ġdinner": 1680,
      "Ġsister": 1681,
      "Ġflying": 1682,
      "Ġcontin": 1683,
      "Ġworried": 1684,
      "Ġele": 1685,
      "ĠZ": 1686,
      "Ġvisit": 1687,
      "ĠMaybe": 1688,
      "Ġbeach": 1689,
      "Ġque": 1690,
      "th": 1691,
      "Ġsecret": 1692,
      "Ġel": 1693,
      "Ġking": 1694,
      "Ġgift": 1695,
      "gy": 1696,
      "Ġtoday": 1697,
      "Ġperfect": 1698,
      "Ġriver": 1699,
      "Ġeverything": 1700,
      "Ġsilly": 1701,
      "Ġshin": 1702,
      "ipp": 1703,
      "Ġdanger": 1704,
      "Ġchildren": 1705,
      "Ġgu": 1706,
      "Ġfield": 1707,
      "Ġfilled": 1708,
      "Ġfur": 1709,
      "Ġelse": 1710,
      "Ġsmiles": 1711,
      "Ġwelc": 1712,
      "Ġwish": 1713,
      "Ġsang": 1714,
      "Ġgi": 1715,
      "ze": 1716,
      "Ġpudd": 1717,
      "Ġsnack": 1718,
      "Ġeating": 1719,
      "Ġrealized": 1720,
      "Ġpieces": 1721,
      "Ġpromised": 1722,
      "ĠCh": 1723,
      "ord": 1724,
      "Ġspr": 1725,
      "Ġpig": 1726,
      "Ġfree": 1727,
      "Ġcontinued": 1728,
      "Ġstart": 1729,
      "Ġbite": 1730,
      "ead": 1731,
      "Ġparents": 1732,
      "Ġcarefully": 1733,
      "ated": 1734,
      "itting": 1735,
      "Ġjar": 1736,
      "Ġcow": 1737,
      "Maybe": 1738,
      "Ġblank": 1739,
      "Ġdrag": 1740,
      "stead": 1741,
      "Ġorange": 1742,
      "Ġmud": 1743,
      "Ġcrying": 1744,
      "Ġblanket": 1745,
      "Ġenough": 1746,
      "Ġrolled": 1747,
      "cket": 1748,
      "Ġsoup": 1749,
      "Ġsail": 1750,
      "Ġpurp": 1751,
      "imi": 1752,
      "Ġyes": 1753,
      "ale": 1754,
      "Ġdrink": 1755,
      "Ġsnake": 1756,
      "ses": 1757,
      "Ġboun": 1758,
      "Ġpet": 1759,
      "Ġcrab": 1760,
      "Ġlaughing": 1761,
      "Ġthrow": 1762,
      "Ġfairy": 1763,
      "Ġwords": 1764,
      "Ġamazing": 1765,
      "ĠJim": 1766,
      "Ġbath": 1767,
      "ich": 1768,
      "Ġpurple": 1769,
      "ĠJen": 1770,
      "Ġwithout": 1771,
      "ire": 1772,
      "ĠMimi": 1773,
      "Ġbottle": 1774,
      "Ġgrandma": 1775,
      "used": 1776,
      "ons": 1777,
      "Ġpast": 1778,
      "Ġmoney": 1779,
      "iver": 1780,
      "fort": 1781,
      "Ġmail": 1782,
      "Ġbarked": 1783,
      "Ġwagged": 1784,
      "Ġatt": 1785,
      "chool": 1786,
      "Ġmonkey": 1787,
      "Ġdoctor": 1788,
      "unch": 1789,
      "Ġbrown": 1790,
      "Ġmoved": 1791,
      "ises": 1792,
      "Ġasks": 1793,
      "ĠBl": 1794,
      "Ġgetting": 1795,
      "Ġclosed": 1796,
      "Ġwhe": 1797,
      "Ġwelcome": 1798,
      "Ġsu": 1799,
      "Ġcandy": 1800,
      "Ġschool": 1801,
      "Ġmorning": 1802,
      "Ġowner": 1803,
      "gg": 1804,
      "Ġlon": 1805,
      "Ġmother": 1806,
      "Ġhigher": 1807,
      "Ġsitting": 1808,
      "Ġtreasure": 1809,
      ".âĢĿ": 1810,
      "Ġsmo": 1811,
      "!âĢĿ": 1812,
      "Ġdangerous": 1813,
      "Ġlonely": 1814,
      "Ġliving": 1815,
      "Ġapples": 1816,
      "Ġshop": 1817,
      "ased": 1818,
      "Ġstrange": 1819,
      "vel": 1820,
      "ush": 1821,
      "Ġshining": 1822,
      "Ġroad": 1823,
      "Ġcreat": 1824,
      "una": 1825,
      "Ġpaw": 1826,
      "Ġ-": 1827,
      "Ġra": 1828,
      "Ġshoes": 1829,
      "Ġpre": 1830,
      "ible": 1831,
      "Ġstre": 1832,
      "Ġtalking": 1833,
      "althy": 1834,
      "Ġcaught": 1835,
      "Ġegg": 1836,
      "ol": 1837,
      "Ġpass": 1838,
      "me": 1839,
      "Ġlake": 1840,
      "Ġruns": 1841,
      "Ġbuck": 1842,
      "Ġletter": 1843,
      "Ġwings": 1844,
      "Ġchee": 1845,
      "fish": 1846,
      "Ġmad": 1847,
      "Ġfan": 1848,
      "asket": 1849,
      "Ġbasket": 1850,
      "ass": 1851,
      "Ġdragon": 1852,
      "app": 1853,
      "But": 1854,
      "set": 1855,
      "cks": 1856,
      "Ġstone": 1857,
      "Ġthinks": 1858,
      "Tim": 1859,
      "Ġstand": 1860,
      "Ġdelicious": 1861,
      "Ġnose": 1862,
      "Ġpuddle": 1863,
      "Ġtom": 1864,
      "Ġbelie": 1865,
      "Ġfarmer": 1866,
      "Ġsame": 1867,
      "Ġyears": 1868,
      "board": 1869,
      "Ġteddy": 1870,
      "Ġbat": 1871,
      "isk": 1872,
      "itch": 1873,
      "Ġmine": 1874,
      "Ġsear": 1875,
      "Ġcoat": 1876,
      "ches": 1877,
      "ĠEmma": 1878,
      "igh": 1879,
      "Ġdays": 1880,
      "Ġbring": 1881,
      "Ġgentle": 1882,
      "Ġfit": 1883,
      "ĠTogether": 1884,
      "Ġfinally": 1885,
      "Ġwhist": 1886,
      "ars": 1887,
      "Ġcray": 1888,
      "igg": 1889,
      "Ġscream": 1890,
      "Ġkite": 1891,
      "ĠMolly": 1892,
      "Ġheart": 1893,
      "Ġpill": 1894,
      "phant": 1895,
      "arm": 1896,
      "ĠRe": 1897,
      "Ġvill": 1898,
      "Ġcho": 1899,
      "Ġsinging": 1900,
      "The": 1901,
      "ella": 1902,
      "sw": 1903,
      "ined": 1904,
      "Ġtasty": 1905,
      "Ġben": 1906,
      "Ġph": 1907,
      "Ġtrou": 1908,
      "Ġshell": 1909,
      "Ġherself": 1910,
      "Ġhoped": 1911,
      "Ġansw": 1912,
      "Ġwore": 1913,
      "Ġswings": 1914,
      "sy": 1915,
      "Ġhor": 1916,
      "Ġbelong": 1917,
      "Please": 1918,
      "Ġpush": 1919,
      "iskers": 1920,
      "Ġcarrot": 1921,
      "Ġarri": 1922,
      "aughty": 1923,
      "Ġteach": 1924,
      "ĠBlue": 1925,
      "bow": 1926,
      "ract": 1927,
      "Ġnaughty": 1928,
      "Ġbush": 1929,
      "Ġelephant": 1930,
      "Ġdropped": 1931,
      "Ġshap": 1932,
      "ier": 1933,
      "Ġcoll": 1934,
      "sc": 1935,
      "Ġteac": 1936,
      "Ġwoke": 1937,
      "red": 1938,
      "ball": 1939,
      "Ġpile": 1940,
      "Ġhiding": 1941,
      "Ġcour": 1942,
      "ĠTheir": 1943,
      "ĠWhiskers": 1944,
      "Ġpart": 1945,
      "isa": 1946,
      "erry": 1947,
      "Ġtouc": 1948,
      "Ġmin": 1949,
      "Ġpuppy": 1950,
      "'ll": 1951,
      "Ġseem": 1952,
      "llie": 1953,
      "Ġtwins": 1954,
      "ama": 1955,
      "Ġlunch": 1956,
      "Ġbow": 1957,
      "Ġsack": 1958,
      "ĠRemy": 1959,
      "Ġpers": 1960,
      "Tom": 1961,
      "Ġcourse": 1962,
      "Ġcheered": 1963,
      "Ġshapes": 1964,
      "Ġgrew": 1965,
      "ĠBella": 1966,
      "fused": 1967,
      "Ġrope": 1968,
      "Ġvillage": 1969,
      "irth": 1970,
      "irthday": 1971,
      "Ġjuice": 1972,
      "ipped": 1973,
      "Ġrainbow": 1974,
      "ĠLisa": 1975,
      "Ġspin": 1976,
      "OK": 1977,
      "ĠMark": 1978,
      "Ġshook": 1979,
      "Ġspoon": 1980,
      "Ġbench": 1981,
      "Ġstreet": 1982,
      "Ġfence": 1983,
      "Ġcute": 1984,
      "ĠLe": 1985,
      "Ġrob": 1986,
      "Ġnut": 1987,
      "Ġcheese": 1988,
      "Ġprob": 1989,
      "Ġtouched": 1990,
      "idge": 1991,
      "col": 1992,
      "Ġjoy": 1993,
      "ĠJill": 1994,
      "Ġarrived": 1995,
      "Ġseed": 1996,
      "Ġwar": 1997,
      "Ġteacher": 1998,
      "Ġcorn": 1999,
      "Good": 2000,
      "Ġforever": 2001,
      "Ġable": 2002,
      "Ġbell": 2003,
      "Ġfew": 2004,
      "Ġcarry": 2005,
      "ĠGrandma": 2006,
      "Ġmost": 2007,
      "Ġplane": 2008,
      "lem": 2009,
      "Ġeas": 2010,
      "Ġsounds": 2011,
      "lla": 2012,
      "Ġdes": 2013,
      "Ġspo": 2014,
      "Ġproblem": 2015,
      "Ġbirthday": 2016,
      "Ġpower": 2017,
      "Ġinc": 2018,
      "umb": 2019,
      "br": 2020,
      "Ġbugs": 2021,
      "ilk": 2022,
      "Ġwonderful": 2023,
      "ĠThank": 2024,
      "Ġdolls": 2025,
      "Ġbusy": 2026,
      "ato": 2027,
      "irp": 2028,
      "Ġwra": 2029,
      "Ġpromise": 2030,
      "Ġfeels": 2031,
      "ian": 2032,
      "eter": 2033,
      "Ġbread": 2034,
      "ost": 2035,
      "Ġneck": 2036,
      "Ġmilk": 2037,
      "Ġrobot": 2038,
      "Ġrec": 2039,
      "Ġshy": 2040,
      "ountain": 2041,
      "Ġkiss": 2042,
      "Ġband": 2043,
      "Ġcave": 2044,
      "Ġpocket": 2045,
      "eb": 2046,
      "ub": 2047,
      "Ġhelpful": 2048,
      "gly": 2049,
      "Ġslowly": 2050,
      "Ġbelieve": 2051,
      "Ġshake": 2052,
      "umpy": 2053,
      "eared": 2054,
      "Ġpatient": 2055,
      "Ġpop": 2056,
      "Ġob": 2057,
      "arp": 2058,
      "Ġlive": 2059,
      "Ġstorm": 2060,
      "ĠFred": 2061,
      "Ġholding": 2062,
      "Ġugly": 2063,
      "Ġtowards": 2064,
      "Ġupset": 2065,
      "Ġturt": 2066,
      "Ġshr": 2067,
      "adow": 2068,
      "Ġcover": 2069,
      "Ġkitten": 2070,
      "Ġsharp": 2071,
      "Ġdisapp": 2072,
      "Ġstories": 2073,
      "Ġsuc": 2074,
      "Ġhoney": 2075,
      "ove": 2076,
      "read": 2077,
      "Ġnoises": 2078,
      "Ġcir": 2079,
      "Ġballs": 2080,
      "ĠLater": 2081,
      "Ġspark": 2082,
      "Ġgray": 2083,
      "Ġdist": 2084,
      "Ġdirt": 2085,
      "oggy": 2086,
      "Ġlate": 2087,
      "Ġdriver": 2088,
      "Ġseat": 2089,
      "Ġbucket": 2090,
      "Ġmeet": 2091,
      "Ġyoung": 2092,
      "Ġamazed": 2093,
      "Ġturtle": 2094,
      "alm": 2095,
      "Ġspid": 2096,
      "Ġtreats": 2097,
      "ĠBe": 2098,
      "Ġmagical": 2099,
      "unt": 2100,
      "ator": 2101,
      "Ġglow": 2102,
      "Ġseek": 2103,
      "Ġzoom": 2104,
      "Ġlem": 2105,
      "Ġsandw": 2106,
      "fortable": 2107,
      "umber": 2108,
      "Ġtrip": 2109,
      "Ġmist": 2110,
      "Ġsplas": 2111,
      "ĠLeo": 2112,
      "ourn": 2113,
      "Ġmark": 2114,
      "Ġjourn": 2115,
      "Ġfold": 2116,
      "Ġmach": 2117,
      "Ġpuzz": 2118,
      "ling": 2119,
      "Ġhorse": 2120,
      "Ġorgan": 2121,
      "Ġwild": 2122,
      "Ġprincess": 2123,
      "pping": 2124,
      "oose": 2125,
      "Ġcookie": 2126,
      "ens": 2127,
      "Ġhugs": 2128,
      "Lily": 2129,
      "Ġtaking": 2130,
      "ung": 2131,
      "Ġwheel": 2132,
      "epend": 2133,
      "Ġcloth": 2134,
      "Ġsug": 2135,
      "Ġinstead": 2136,
      "Ġbubb": 2137,
      "Ġstring": 2138,
      "Ġnet": 2139,
      "Ġdrove": 2140,
      "iling": 2141,
      "Ġrude": 2142,
      "Ġhuge": 2143,
      "Ġcoin": 2144,
      "Ġstars": 2145,
      "Ġfighting": 2146,
      "Ġspicy": 2147,
      "Ġlucky": 2148,
      "Sure": 2149,
      "Of": 2150,
      "Ġcraw": 2151,
      "Hey": 2152,
      "Ġbone": 2153,
      "Ġinv": 2154,
      "ors": 2155,
      "not": 2156,
      "ĠMary": 2157,
      "Ġca": 2158,
      "pper": 2159,
      "Ġforget": 2160,
      "up": 2161,
      "Ġdi": 2162,
      "aur": 2163,
      "Ġsal": 2164,
      "ert": 2165,
      "Ġcannot": 2166,
      "Ġwhistle": 2167,
      "Ġcard": 2168,
      "Ġsick": 2169,
      "Ġpath": 2170,
      "Ġcou": 2171,
      "Ġspider": 2172,
      "Ġwide": 2173,
      "ĠMama": 2174,
      "Ġfoot": 2175,
      "Ġsnowman": 2176,
      "Ġlife": 2177,
      "Ġsongs": 2178,
      "Ġpillow": 2179,
      "ize": 2180,
      "ĠBu": 2181,
      "Ġfixed": 2182,
      "ĠCat": 2183,
      "est": 2184,
      "Ġgiant": 2185,
      "rill": 2186,
      "Ġcart": 2187,
      "ĠWith": 2188,
      "Ġnod": 2189,
      "Ġboss": 2190,
      "ular": 2191,
      "Ġlast": 2192,
      "Ġcomes": 2193,
      "Ġjoke": 2194,
      "ĠLuna": 2195,
      "Ġmoon": 2196,
      "Ġtaste": 2197,
      "den": 2198,
      "Ġmachine": 2199,
      "Ġgrumpy": 2200,
      "ĠDaddy": 2201,
      "Ġwave": 2202,
      "Ġthin": 2203,
      "Ġdrive": 2204,
      "Ġash": 2205,
      "Ġser": 2206,
      "Ġgrab": 2207,
      "Ġpeace": 2208,
      "Ġdaddy": 2209,
      "ery": 2210,
      "Ġsel": 2211,
      "Ġshelf": 2212,
      "Ġhidden": 2213,
      "erest": 2214,
      "Ġsuddenly": 2215,
      "Ġwasn": 2216,
      "Ġwrite": 2217,
      "Ġlanded": 2218,
      "Ġconfused": 2219,
      "lower": 2220,
      "Ġring": 2221,
      "Ġchange": 2222,
      "Ġworm": 2223,
      "oop": 2224,
      "Ġinterest": 2225,
      "Ġchased": 2226,
      "Ġfruits": 2227,
      "Ġsour": 2228,
      "ity": 2229,
      "Ġmyster": 2230,
      "Ġbark": 2231,
      "Ġrad": 2232,
      "Ġsmooth": 2233,
      "ĠCome": 2234,
      "Ġadventures": 2235,
      "Ġval": 2236,
      "Ġstepped": 2237,
      "Ġfle": 2238,
      "ope": 2239,
      "Ġoven": 2240,
      "ĠChirp": 2241,
      "Ġtakes": 2242,
      "Ġmissed": 2243,
      "let": 2244,
      "Ġselfish": 2245,
      "kin": 2246,
      "Ġsheep": 2247,
      "Ġmessy": 2248,
      "Ġacross": 2249,
      "Ġent": 2250,
      "Ġexp": 2251,
      "to": 2252,
      "Ġce": 2253,
      "Ġlater": 2254,
      "elly": 2255,
      "ife": 2256,
      "ever": 2257,
      "Ġsticks": 2258,
      "Ġtie": 2259,
      "pect": 2260,
      "Ġbought": 2261,
      "Ġstep": 2262,
      "Ġdrew": 2263,
      "Ġban": 2264,
      "box": 2265,
      "?âĢĿ": 2266,
      "Ġwash": 2267,
      "Ġlay": 2268,
      "Ġpour": 2269,
      "ose": 2270,
      "Ġbeak": 2271,
      "Ġjog": 2272,
      "Ġgrate": 2273,
      "ĠMomo": 2274,
      "Ġducks": 2275,
      "Ġspe": 2276,
      "Ġlegs": 2277,
      "ugg": 2278,
      "Ġfil": 2279,
      "Ġemp": 2280,
      "mer": 2281,
      "Ġhope": 2282,
      "Ġtea": 2283,
      "Ġempty": 2284,
      "Ġslid": 2285,
      "Ġfeather": 2286,
      "Ġshirt": 2287,
      "Ġsleepy": 2288,
      "Ġdrum": 2289,
      "amed": 2290,
      "ĠChirpy": 2291,
      "Ġzoo": 2292,
      "Ġpan": 2293,
      "eth": 2294,
      "Ġphone": 2295,
      "Ġgrateful": 2296,
      "Ġfing": 2297,
      "ions": 2298,
      "ĠOllie": 2299,
      "Ġlemon": 2300,
      "Ġclever": 2301,
      "Ġsmelly": 2302,
      "Ġimag": 2303,
      "Ġinteresting": 2304,
      "Ġsave": 2305,
      "Ġchick": 2306,
      "Ġcalm": 2307,
      "Ġsplash": 2308,
      "Ġmed": 2309,
      "Ġwatching": 2310,
      "izzy": 2311,
      "ĠJerry": 2312,
      "izz": 2313,
      "Ġplate": 2314,
      "Ġign": 2315,
      "ĠBunny": 2316,
      "yard": 2317,
      "Ġclouds": 2318,
      "Ġbanan": 2319,
      "Ġline": 2320,
      "Ġfaces": 2321,
      "Ġba": 2322,
      "Ġact": 2323,
      "Ġthough": 2324,
      "Ġwolf": 2325,
      "Ġbackyard": 2326,
      "wel": 2327,
      "Ġseemed": 2328,
      "Ġdogs": 2329,
      "ĠJimmy": 2330,
      "Ġspray": 2331,
      "ĠDoggy": 2332,
      "Come": 2333,
      "Ġprot": 2334,
      "Ġwhole": 2335,
      "Ġmot": 2336,
      "Ġfancy": 2337,
      "Ġquest": 2338,
      "Ġarms": 2339,
      "Ġpuzzle": 2340,
      "Ġhealthy": 2341,
      "Ġsupp": 2342,
      "ward": 2343,
      "Ġfinish": 2344,
      "erly": 2345,
      "Ġalong": 2346,
      "llo": 2347,
      "Ġrocket": 2348,
      "Ġexplain": 2349,
      "ult": 2350,
      "dge": 2351,
      "Ġeasy": 2352,
      "ont": 2353,
      "Ġjewel": 2354,
      "Ġpract": 2355,
      "Ġjelly": 2356,
      "Ġtid": 2357,
      "Ġfake": 2358,
      "Ġcrayons": 2359,
      "Ġwondered": 2360,
      "Ġmaybe": 2361,
      "Ġscar": 2362,
      "Ġship": 2363,
      "Ġnothing": 2364,
      "onest": 2365,
      "Ġemb": 2366,
      "iger": 2367,
      "Ġpool": 2368,
      "Ġlonger": 2369,
      "ĠSt": 2370,
      "Ġanyone": 2371,
      "ually": 2372,
      "Ġfront": 2373,
      "Ġworking": 2374,
      "Ġgives": 2375,
      "irr": 2376,
      "Ġpack": 2377,
      "Ġsuch": 2378,
      "ocked": 2379,
      "ment": 2380,
      "Ġbossy": 2381,
      "Ġtrouble": 2382,
      "Ġsmelled": 2383,
      "Ġsaved": 2384,
      "Ġpin": 2385,
      "rass": 2386,
      "Ġneigh": 2387,
      "St": 2388,
      "arrass": 2389,
      "iting": 2390,
      "Ġhonest": 2391,
      "Ġav": 2392,
      "arge": 2393,
      "Ġembarrass": 2394,
      "Ġlift": 2395,
      "Ġvan": 2396,
      "Ġforgive": 2397,
      "Ġtidy": 2398,
      "Ġweak": 2399,
      "urse": 2400,
      "Ġputs": 2401,
      "unk": 2402,
      "Ġkick": 2403,
      "ĠMum": 2404,
      "Ġmind": 2405,
      "Ġneighb": 2406,
      "Ġplants": 2407,
      "ĠBobby": 2408,
      "Ġsol": 2409,
      "Ġgently": 2410,
      "Ġcozy": 2411,
      "orrow": 2412,
      "Ġprint": 2413,
      "ming": 2414,
      "Ġexplor": 2415,
      "sp": 2416,
      "Ġmistake": 2417,
      "Ġyog": 2418,
      "oc": 2419,
      "oomy": 2420,
      "Ġpointed": 2421,
      "Ġlad": 2422,
      "Ġaf": 2423,
      "Ġstood": 2424,
      "ork": 2425,
      "Ġonto": 2426,
      "Ġjumping": 2427,
      "Ġwaiting": 2428,
      "Ġprince": 2429,
      "Ġcross": 2430,
      "Ġlock": 2431,
      "Ġcheer": 2432,
      "Ġqueen": 2433,
      "ĠWhy": 2434,
      "Ġwing": 2435,
      "ones": 2436,
      "we": 2437,
      "Ġlarge": 2438,
      "Ġlovely": 2439,
      "Ġsur": 2440,
      "Ġret": 2441,
      "Ġdeer": 2442,
      "Ġchew": 2443,
      "Ġcouch": 2444,
      "Ġbal": 2445,
      "ĠMy": 2446,
      "Ġstret": 2447,
      "aughter": 2448,
      "era": 2449,
      "Ġplaces": 2450,
      "Be": 2451,
      "Ġladder": 2452,
      "Ġreturn": 2453,
      "raid": 2454,
      "ĠSomet": 2455,
      "Ġear": 2456,
      "Ġants": 2457,
      "Ġdish": 2458,
      "Ġafraid": 2459,
      "Ġcleaned": 2460,
      "Ġtomorrow": 2461,
      "Ġbuilding": 2462,
      "Ġsandwich": 2463,
      "Ġperson": 2464,
      "ek": 2465,
      "ned": 2466,
      "Ġpretended": 2467,
      "Ġbounce": 2468,
      "Ġwip": 2469,
      "gest": 2470,
      "Ġmatch": 2471,
      "Ġrich": 2472,
      "uce": 2473,
      "Ġpizz": 2474,
      "Ġgather": 2475,
      "Ġsearch": 2476,
      "Ġboring": 2477,
      "ĠTiny": 2478,
      "oman": 2479,
      "Ġteeth": 2480,
      "Ġhum": 2481,
      "aced": 2482,
      "Ġdaughter": 2483,
      "Ġwoman": 2484,
      "Ġscarf": 2485,
      "Ġgoes": 2486,
      "Ġlaw": 2487,
      "My": 2488,
      "Ġstra": 2489,
      "Ġswimming": 2490,
      "Ġfurry": 2491,
      "Ġsplashed": 2492,
      "ĠAl": 2493,
      "Ġpri": 2494,
      "Ġloves": 2495,
      "Ġtrue": 2496,
      "ĠBird": 2497,
      "Ġscreamed": 2498,
      "Ġlazy": 2499,
      "Ġgen": 2500,
      "Ġanswer": 2501,
      "Ġnumber": 2502,
      "Ġeag": 2503,
      "Ġashamed": 2504,
      "Ġpizza": 2505,
      "aw": 2506,
      "Ġappeared": 2507,
      "Ġfear": 2508,
      "Ġnearby": 2509,
      "Ġpowerful": 2510,
      "Ġflag": 2511,
      "Ġhang": 2512,
      "vous": 2513,
      "Ġclown": 2514,
      "Ġchase": 2515,
      "Ġmotor": 2516,
      "Ġwand": 2517,
      "ĠBenny": 2518,
      "ĠTV": 2519,
      "Ġrub": 2520,
      "Ġsuccess": 2521,
      "Ġchocol": 2522,
      "ĠIf": 2523,
      "Ġcreative": 2524,
      "Ġtrust": 2525,
      "Ġwearing": 2526,
      "Ġnoisy": 2527,
      "Ġmatter": 2528,
      "pa": 2529,
      "Ġdig": 2530,
      "ĠDucky": 2531,
      "Ġhello": 2532,
      "Ġner": 2533,
      "Ġtool": 2534,
      "Ġsaf": 2535,
      "ado": 2536,
      "Ġnervous": 2537,
      "elp": 2538,
      "Ġtest": 2539,
      "Ġsmiling": 2540,
      "Ġsold": 2541,
      "icked": 2542,
      "oppy": 2543,
      "osaur": 2544,
      "Ġcircle": 2545,
      "mb": 2546,
      "Now": 2547,
      "ĠHow": 2548,
      "Ġmap": 2549,
      "Ġdrank": 2550,
      "Ġclass": 2551,
      "Ġtries": 2552,
      "Ġchocolate": 2553,
      "ĠPlease": 2554,
      "Ġimpress": 2555,
      "Ġknee": 2556,
      "Ġgener": 2557,
      "Ġdinosaur": 2558,
      "Ġpolite": 2559,
      "Ġmirr": 2560,
      "ĠGo": 2561,
      "Ġballoons": 2562,
      "Ġgold": 2563,
      "Ġrare": 2564,
      "Ġprotect": 2565,
      "Ġcand": 2566,
      "Stop": 2567,
      "ĠDon": 2568,
      "Ġcarried": 2569,
      "ensive": 2570,
      "Ġap": 2571,
      "Ġshadow": 2572,
      "Ġmirror": 2573,
      "Ġbald": 2574,
      "Ġgun": 2575,
      "ina": 2576,
      "Ġexpensive": 2577,
      "Ġreg": 2578,
      "iff": 2579,
      "Ġmysterious": 2580,
      "Ġpump": 2581,
      "Ġnote": 2582,
      "Ġhero": 2583,
      "ĠU": 2584,
      "Ġmarch": 2585,
      "Ġrespect": 2586,
      "Ġhar": 2587,
      "arl": 2588,
      "Ġicy": 2589,
      "Ġweird": 2590,
      "ĠBear": 2591,
      "Ġsnee": 2592,
      "Ġcri": 2593,
      "Ġgate": 2594,
      "Ġsoap": 2595,
      "rag": 2596,
      "ute": 2597,
      "issors": 2598,
      "Ġthese": 2599,
      "Ġpoor": 2600,
      "Ġtowel": 2601,
      "Ġwhale": 2602,
      "Ġfeet": 2603,
      "Ġtape": 2604,
      "Ġdizzy": 2605,
      "itter": 2606,
      "Ġgenerous": 2607,
      "ndpa": 2608,
      "Ġpres": 2609,
      "nic": 2610,
      "Ġdisco": 2611,
      "Help": 2612,
      "ventually": 2613,
      "Ġpicnic": 2614,
      "Ġmic": 2615,
      "Ġlead": 2616,
      "Ġsque": 2617,
      "ĠSometimes": 2618,
      "Ġembarrassed": 2619,
      "Ġjourney": 2620,
      "isp": 2621,
      "Ġsugar": 2622,
      "scape": 2623,
      "Ġboot": 2624,
      "Ġtent": 2625,
      "Ġpeaceful": 2626,
      "Ġfat": 2627,
      "Ġscissors": 2628,
      "Ġtasted": 2629,
      "Ġyelled": 2630,
      "Ġtick": 2631,
      "Ġmel": 2632,
      "Ġbrush": 2633,
      "ĠElla": 2634,
      "Ġdancing": 2635,
      "ness": 2636,
      "Ġglue": 2637,
      "Ġhur": 2638,
      "Ġrough": 2639,
      "Ġclap": 2640,
      "Ġbridge": 2641,
      "ote": 2642,
      "Ġdecor": 2643,
      "Ġcloset": 2644,
      "Ġcrown": 2645,
      "Ġstir": 2646,
      "ĠAndy": 2647,
      "ual": 2648,
      "imp": 2649,
      "owed": 2650,
      "airs": 2651,
      "ume": 2652,
      "Ġcap": 2653,
      "Ġlamp": 2654,
      "Ġvase": 2655,
      "Ġscare": 2656,
      "lebr": 2657,
      "Ġrelie": 2658,
      "lves": 2659,
      "any": 2660,
      "Ġeld": 2661,
      "Ġtele": 2662,
      "Ġcelebr": 2663,
      "Ġgigg": 2664,
      "Ġwhisp": 2665,
      "Ġlog": 2666,
      "Ġblow": 2667,
      "Ġpainted": 2668,
      "Ġsco": 2669,
      "Ġpay": 2670,
      "erries": 2671,
      "Ġwis": 2672,
      "Ġberries": 2673,
      "Ġmixed": 2674,
      "Ġspread": 2675,
      "Ġwouldn": 2676,
      "Ġcage": 2677,
      "Ġbake": 2678,
      "rob": 2679,
      "getable": 2680,
      "Ġmountain": 2681,
      "Ġadm": 2682,
      "Ġdrawing": 2683,
      "Ġbecome": 2684,
      "ĠBr": 2685,
      "Ġfamous": 2686,
      "Ġbean": 2687,
      "Ġknocked": 2688,
      "Ġnorm": 2689,
      "Ġvegetable": 2690,
      "asp": 2691,
      "Ġkicked": 2692,
      "ustr": 2693,
      "Ġshark": 2694,
      "ser": 2695,
      "Ġincred": 2696,
      "Ġlose": 2697,
      "Ġnormal": 2698,
      "Ġwrap": 2699,
      "ĠSome": 2700,
      "ced": 2701,
      "Ġgroup": 2702,
      "Ġthick": 2703,
      "Ġ3": 2704,
      "Ġfine": 2705,
      "Ġglass": 2706,
      "Ġignor": 2707,
      "oph": 2708,
      "Ġclock": 2709,
      "Ġteam": 2710,
      "ĠJenny": 2711,
      "ĠPe": 2712,
      "Ġelderly": 2713,
      "Ġclear": 2714,
      "Ġcorner": 2715,
      "Max": 2716,
      "Ġfrustr": 2717,
      "Ġmighty": 2718,
      "robe": 2719,
      "Ġcone": 2720,
      "Ġincredible": 2721,
      "ighed": 2722,
      "Ġmoms": 2723,
      "Ġbalance": 2724,
      "Ġsock": 2725,
      "Ġspace": 2726,
      "Ġjam": 2727,
      "ragile": 2728,
      "Ġfright": 2729,
      "Ġbranches": 2730,
      "Ġorganized": 2731,
      "Ġroar": 2732,
      "port": 2733,
      "Ġsword": 2734,
      "alous": 2735,
      "Ġguess": 2736,
      "Ġfool": 2737,
      "Ġsell": 2738,
      "Ġfeed": 2739,
      "ĠSammy": 2740,
      "Ġwhich": 2741,
      "Ġhorn": 2742,
      "Mommy": 2743,
      "Ġpresent": 2744,
      "Ġjealous": 2745,
      "Ġyarn": 2746,
      "ony": 2747,
      "Ġfragile": 2748,
      "Ġburn": 2749,
      "Ġunderstood": 2750,
      "Ġmis": 2751,
      "Ġstubb": 2752,
      "Ġter": 2753,
      "Wh": 2754,
      "Ġfrustrated": 2755,
      "ray": 2756,
      "Ġhose": 2757,
      "cient": 2758,
      "Where": 2759,
      "Ġspent": 2760,
      "Ġshoe": 2761,
      "Ġtaught": 2762,
      "Ġstubborn": 2763,
      "Ġtwist": 2764,
      "Ġcreature": 2765,
      "Ġchest": 2766,
      "Ġspoiled": 2767,
      "Ġrelieved": 2768,
      "Ġancient": 2769,
      "ĠTr": 2770,
      "ique": 2771,
      "Ġwake": 2772,
      "Ġfier": 2773,
      "Ġpray": 2774,
      "Ġfierce": 2775,
      "Ġeggs": 2776,
      "Ġcab": 2777,
      "Ġterri": 2778,
      "Ġbarn": 2779,
      "Ġpumpkin": 2780,
      "Ġcomfortable": 2781,
      "Ġord": 2782,
      "Ġfrightened": 2783,
      "orry": 2784,
      "Ġtoug": 2785,
      "Ġunique": 2786,
      "Ġmeasure": 2787,
      "Ġgoat": 2788,
      "Ġwagon": 2789,
      "Ġunus": 2790,
      "Ġbreath": 2791,
      "Ġfoolish": 2792,
      "Ġ'": 2793,
      "Ġuseful": 2794,
      "Ġexploring": 2795,
      "dle": 2796,
      "Ġstraw": 2797,
      "Ġunusual": 2798,
      "Ġdug": 2799,
      "Ġclay": 2800,
      "Ġdiscover": 2801,
      "Ġtomato": 2802,
      "Ġdead": 2803,
      "Ġfinding": 2804,
      "Ġpolice": 2805,
      "Ġwrote": 2806,
      "Ġclum": 2807,
      "ym": 2808,
      "Ġexam": 2809,
      "lace": 2810,
      "ĠRex": 2811,
      "Ġwaves": 2812,
      "Ġsquare": 2813,
      "Ġhears": 2814,
      "Ġcabin": 2815,
      "Ġtells": 2816,
      "Ġnecklace": 2817,
      "Ġdull": 2818,
      "Ġclumsy": 2819,
      "Ġtough": 2820,
      "Ġbubbles": 2821,
      "Ġnosy": 2822,
      "kn": 2823,
      "Ġsearched": 2824,
      "Ġwashed": 2825,
      "Ġbathroom": 2826,
      "Ġpaws": 2827,
      "ĠWill": 2828,
      "bby": 2829,
      "ond": 2830,
      "unn": 2831,
      "anged": 2832,
      "Ġboard": 2833,
      "known": 2834,
      "fic": 2835,
      "Ġasking": 2836,
      "Ġcrazy": 2837,
      "Ġthankful": 2838,
      "Ġbitter": 2839,
      "Ġsunf": 2840,
      "yal": 2841,
      "Ġpir": 2842,
      "berry": 2843,
      "Ġind": 2844,
      "alk": 2845,
      "Ġdiffic": 2846,
      "Ġrose": 2847,
      "cil": 2848,
      "Ġswan": 2849,
      "Ġbloom": 2850,
      "Ġunknown": 2851,
      "Ġcovered": 2852,
      "Ġdifficult": 2853,
      "Ġadd": 2854,
      "Ġpencil": 2855,
      "Ġfinger": 2856,
      "Ġham": 2857,
      "Ġhoop": 2858,
      "Ġjet": 2859,
      "Ġwitch": 2860,
      "Ġdrop": 2861,
      "Ġchicken": 2862,
      "Ġgloomy": 2863,
      "apped": 2864,
      "Ġloyal": 2865,
      "als": 2866,
      "Ġwealthy": 2867,
      "com": 2868,
      "light": 2869,
      "ĠMany": 2870,
      "Ġunl": 2871,
      "Ġcats": 2872,
      "Ġending": 2873,
      "Ġguit": 2874,
      "bled": 2875,
      "Here": 2876,
      "shine": 2877,
      "Ġdove": 2878,
      "Ġsort": 2879,
      "Ġjoined": 2880,
      "Ġcher": 2881,
      "anut": 2882,
      "Ġmov": 2883,
      "Ġterrible": 2884,
      "Ġyours": 2885,
      "iant": 2886,
      "Ġsalad": 2887,
      "Ġnuts": 2888,
      "Ġrat": 2889,
      "Ġlif": 2890,
      "ground": 2891,
      "Ġtiger": 2892,
      "Ġpotato": 2893,
      "Ġmask": 2894,
      "xible": 2895,
      "selves": 2896,
      "Ġvalue": 2897,
      "Ġchanged": 2898,
      "ĠBrown": 2899,
      "Ġmoving": 2900,
      "Ġexciting": 2901,
      "ormous": 2902,
      "Ġbody": 2903,
      "ĠInstead": 2904,
      "Ġtoast": 2905,
      "Ġrecord": 2906,
      "erp": 2907,
      "Ġzip": 2908,
      "Ġcheap": 2909,
      "Ġdisg": 2910,
      "Ġguitar": 2911,
      "irsty": 2912,
      "Ġknowing": 2913,
      "Ġadventur": 2914,
      "Ġyourself": 2915,
      "Ġenormous": 2916,
      "Ġhairy": 2917,
      "Ġshoot": 2918,
      "Ġbored": 2919,
      "Ġpepper": 2920,
      "Ġremind": 2921,
      "ory": 2922,
      "Ġacorn": 2923,
      "land": 2924,
      "Ġadventurous": 2925,
      "Ġsunshine": 2926,
      "Ġsmaller": 2927,
      "Ġstuff": 2928,
      "Ġhats": 2929,
      "Ġsolve": 2930,
      "Ġflexible": 2931,
      "Ġcost": 2932,
      "rilliant": 2933,
      "Ġknife": 2934,
      "Ġperform": 2935,
      "Ġsnacks": 2936,
      "Ġnods": 2937,
      "Ġshore": 2938,
      "Ġbrilliant": 2939,
      "Ġthirsty": 2940,
      "Ġdelicate": 2941,
      "ĠNo": 2942,
      "Ġfrown": 2943,
      "Ġdisgust": 2944,
      "Ġcollect": 2945,
      "Ġstri": 2946,
      "Ġseeds": 2947,
      "Ġcounted": 2948,
      "Ġasleep": 2949,
      "Ġbanana": 2950,
      "reen": 2951,
      "Ġmailbox": 2952,
      "iness": 2953,
      "Ġtrick": 2954,
      "Ġdough": 2955,
      "Ġneighbor": 2956,
      "Ben": 2957,
      "ungle": 2958,
      "Ġheal": 2959,
      "ilt": 2960,
      "live": 2961,
      "Who": 2962,
      "ĠLittle": 2963,
      "Ġstage": 2964,
      "ident": 2965,
      "Ġmarket": 2966,
      "Ġcube": 2967,
      "Ġstat": 2968,
      "Ġjungle": 2969,
      "Ġsquee": 2970,
      "mbre": 2971,
      "Ġexplained": 2972,
      "ates": 2973,
      "Ġumbre": 2974,
      "Me": 2975,
      "Ġdisgusting": 2976,
      "Ġlab": 2977,
      "Ġjolly": 2978,
      "und": 2979,
      "inal": 2980,
      "Ġfridge": 2981,
      "Ġcrane": 2982,
      "corn": 2983,
      "Ġsuit": 2984,
      "Ġflash": 2985,
      "pid": 2986,
      "iddle": 2987,
      "Ġsunflower": 2988,
      "Ġtimes": 2989,
      "ict": 2990,
      "Ġcaterp": 2991,
      "Ġcaterpill": 2992,
      "Ġrelax": 2993,
      "Ġshiver": 2994,
      "Ġfour": 2995,
      "Ġisland": 2996,
      "iginal": 2997,
      "Ġharm": 2998,
      "ying": 2999,
      "Ġstupid": 3000,
      "Ġmedic": 3001,
      "Ġcomb": 3002,
      "Ġgoose": 3003,
      "Ġcro": 3004,
      "edient": 3005,
      "ĠJake": 3006,
      "Ġstove": 3007,
      "If": 3008,
      "Are": 3009,
      "Ġindepend": 3010,
      "most": 3011,
      "Ġspring": 3012,
      "Ġgem": 3013,
      "Ġbatter": 3014,
      "Ġsighed": 3015,
      "Ġvegetables": 3016,
      "Ġstones": 3017,
      "ĠYour": 3018,
      "pes": 3019,
      "Ġshine": 3020,
      "Ġmedicine": 3021,
      "Ġdepend": 3022,
      "Ġrug": 3023,
      "Ġcareless": 3024,
      "Ġoriginal": 3025,
      "Ġstamp": 3026,
      "Ġgar": 3027,
      "Ġcries": 3028,
      "gu": 3029,
      "Ġcarrots": 3030,
      "Ġscr": 3031,
      "Ġsuccessful": 3032,
      "Ġsauce": 3033,
      "Ġjeep": 3034,
      "Ġpopcorn": 3035,
      "Ġmeal": 3036,
      "Ġobedient": 3037,
      "Ġalmost": 3038,
      "Ġmiddle": 3039,
      "Ġmagn": 3040,
      "Ġstudy": 3041,
      "Ġindependent": 3042,
      "ĠEmily": 3043,
      "Ġfearful": 3044,
      "Ġjack": 3045,
      "met": 3046,
      "inky": 3047,
      "Sorry": 3048,
      "Ġescape": 3049,
      "Ġcaterpillar": 3050,
      "Ġserious": 3051,
      "Ġpeanut": 3052,
      "Ġbedroom": 3053,
      "Ġeager": 3054,
      "aken": 3055,
      "Ġgets": 3056,
      "Ġparrot": 3057,
      "Ġstatue": 3058,
      "Ġhelmet": 3059,
      "Ġpebb": 3060,
      "Ġfountain": 3061,
      "ĠToday": 3062,
      "Ġang": 3063,
      "Ġraven": 3064,
      "Ġpasta": 3065,
      "Ġumbrella": 3066,
      "Ġcompet": 3067,
      "arth": 3068,
      "Ġjacket": 3069,
      "Ġbelonged": 3070,
      "Ġdest": 3071,
      "Ġfilthy": 3072,
      "Ġdesign": 3073,
      "Ġborrow": 3074,
      "Ġcam": 3075,
      "erable": 3076,
      "Ġhouses": 3077,
      "Ġbelt": 3078,
      "Ġprize": 3079,
      "Ġhay": 3080,
      "Ġbrace": 3081,
      "Ġstanding": 3082,
      "Ġmiserable": 3083,
      "Ġbracelet": 3084,
      "Ġraced": 3085,
      "Ġtaken": 3086,
      "ages": 3087,
      "Ġfork": 3088,
      "Ġcrayon": 3089,
      "Ġpainting": 3090,
      "io": 3091,
      "Ġtriang": 3092,
      "Ġimpressive": 3093,
      "Ġchoose": 3094,
      "Ġfig": 3095,
      "Ġpoint": 3096,
      "Ġtied": 3097,
      "iable": 3098,
      "Ġspotted": 3099,
      "Ġlifted": 3100,
      "Ġslipped": 3101,
      "ours": 3102,
      "Ġtank": 3103,
      "Ġthoughtful": 3104,
      "Ġdependable": 3105,
      "Ġsteal": 3106,
      "Ġgarage": 3107,
      "Ġbuilt": 3108,
      "Ġer": 3109,
      "ipe": 3110,
      "ĠSn": 3111,
      "Ġmole": 3112,
      "Ġcrawled": 3113,
      "Ġscale": 3114,
      "Ġboats": 3115,
      "Ġpant": 3116,
      "Ġpian": 3117,
      "Ġhammer": 3118,
      "Ġbottom": 3119,
      "ĠTrue": 3120,
      "Ġcheerful": 3121,
      "lph": 3122,
      "Ġusing": 3123,
      "ĠPeter": 3124,
      "Ġsmoke": 3125,
      "Ġpicks": 3126,
      "Sam": 3127,
      "Ġmoder": 3128,
      "Ġshows": 3129,
      "berries": 3130,
      "rn": 3131,
      "Ġpiano": 3132,
      "Ġmagnet": 3133,
      "dile": 3134,
      "codile": 3135,
      "Ġhurts": 3136,
      "inary": 3137,
      "Ġref": 3138,
      "Ġcrack": 3139,
      "Ġeng": 3140,
      "oin": 3141,
      "Ġaunt": 3142,
      "Ġmelon": 3143,
      "ĠEven": 3144,
      "Ġwaff": 3145,
      "Ġmodern": 3146,
      "Ġdolph": 3147,
      "unnel": 3148,
      "cream": 3149,
      "pack": 3150,
      "Ġtunnel": 3151,
      "Ġarrow": 3152,
      "Ġmush": 3153,
      "Ġreliable": 3154,
      "Ġhopping": 3155,
      "Ġmushroom": 3156,
      "Ġjug": 3157,
      "Ġsquash": 3158,
      "Ġgum": 3159,
      "Ġsink": 3160,
      "Ġmovie": 3161,
      "Ġtax": 3162,
      "Ġflute": 3163,
      "Ġbeet": 3164,
      "Ġlean": 3165,
      "iv": 3166,
      "Ġpopular": 3167,
      "icop": 3168,
      "icopter": 3169,
      "Ġcryst": 3170,
      "Ġones": 3171,
      "Ġsil": 3172,
      "Ġcompetit": 3173,
      "Ġhelicopter": 3174,
      "aser": 3175,
      "Ġneeds": 3176,
      "ipop": 3177,
      "llipop": 3178,
      "Ġcrocodile": 3179,
      "Ġliz": 3180,
      "Ġpress": 3181,
      "Ġtroubled": 3182,
      "Ġpige": 3183,
      "Ġlocked": 3184,
      "Ġtricks": 3185,
      "Ġlollipop": 3186,
      "Ġplayful": 3187,
      "Ġhumble": 3188,
      "Ġtaxi": 3189,
      "Ġkissed": 3190,
      "Ġlow": 3191,
      "appy": 3192,
      "comfortable": 3193,
      "amond": 3194,
      "Ġrid": 3195,
      "Ġuncomfortable": 3196,
      "host": 3197,
      "Ġwander": 3198,
      "atch": 3199,
      "Ġangel": 3200,
      "edy": 3201,
      "cles": 3202,
      "Ġtorn": 3203,
      "Ġgrace": 3204,
      "Ġanx": 3205,
      "Ġwrapped": 3206,
      "Ġmuff": 3207,
      "Ġtwig": 3208,
      "Ġpants": 3209,
      "Ġdisappoin": 3210,
      "Ġhelps": 3211,
      "Ġdiamond": 3212,
      "Ġcamera": 3213,
      "oto": 3214,
      "Ġanxious": 3215,
      "Ġghost": 3216,
      "atter": 3217,
      "Ġtears": 3218,
      "Ġruined": 3219,
      "How": 3220,
      "ĠSus": 3221,
      "cident": 3222,
      "ilty": 3223,
      "Ġquar": 3224,
      "aff": 3225,
      "Ġfis": 3226,
      "opl": 3227,
      "eropl": 3228,
      "Ġenv": 3229,
      "Ġguilty": 3230,
      "Ġbull": 3231,
      "Ġaeropl": 3232,
      "Ġhelpless": 3233,
      "Ġhappiness": 3234,
      "Ġlizard": 3235,
      "Ġboys": 3236,
      "cut": 3237,
      "Ġcere": 3238,
      "Ġwalks": 3239,
      "cean": 3240,
      "Ġpassed": 3241,
      "tt": 3242,
      "Ġmeant": 3243,
      "Ġocean": 3244,
      "Ġfluffy": 3245,
      "Ġwire": 3246,
      "Ġnail": 3247,
      "Ġdeaf": 3248,
      "zed": 3249,
      "Ġstretch": 3250,
      "Ġcact": 3251,
      "Ġcandle": 3252,
      "Ġbeetle": 3253,
      "Ġmop": 3254,
      "Ġharmless": 3255,
      "umpet": 3256,
      "Ġordinary": 3257,
      "Ġanswered": 3258,
      "Ġcop": 3259,
      "Ġcollar": 3260,
      "Ġbees": 3261,
      "Ġtire": 3262,
      "Ġshape": 3263,
      "Ġquarrel": 3264,
      "Ġradio": 3265,
      "Ġflashlight": 3266,
      "Ġcrystal": 3267,
      "Ġharder": 3268,
      "Ġpoured": 3269,
      "Ġtrumpet": 3270,
      "Ġengine": 3271,
      "Ġpersist": 3272,
      "Ġhunt": 3273,
      "Ġtooth": 3274,
      "Ġcereal": 3275,
      "Ġinvited": 3276,
      "Ġcomput": 3277,
      "Ġtag": 3278,
      "Ġoffice": 3279,
      "Ġmelt": 3280,
      "Ġspill": 3281,
      "Ġcharm": 3282,
      "coa": 3283,
      "Ġlit": 3284,
      "Ġscoot": 3285,
      "Ġcomet": 3286,
      "Ġtriangle": 3287,
      "ief": 3288,
      "Ġmug": 3289,
      "Ġrep": 3290,
      "ube": 3291,
      "Ġyogurt": 3292,
      "Ġspend": 3293,
      "Ġcompass": 3294,
      "Ġaccident": 3295,
      "Ġshade": 3296,
      "ĠPipp": 3297,
      "hett": 3298,
      "aghett": 3299,
      "aghetti": 3300,
      "Ġdisappointed": 3301,
      "Ġlicked": 3302,
      "Ġcactus": 3303,
      "Ġpale": 3304,
      "Ġcush": 3305,
      "Ġfigure": 3306,
      "Ġgiving": 3307,
      "Ġavoc": 3308,
      "Ġregular": 3309,
      "Ġsheet": 3310,
      "Ġwhispered": 3311,
      "ĠPoppy": 3312,
      "aze": 3313,
      "uth": 3314,
      "ellig": 3315,
      "ĠDan": 3316,
      "Ġcreate": 3317,
      "Ġbarber": 3318,
      "Ġintellig": 3319,
      "Ġpipe": 3320,
      "Ġrode": 3321,
      "Ġroof": 3322,
      "Ġthread": 3323,
      "ither": 3324,
      "Ġlibr": 3325,
      "Ġload": 3326,
      "Ġvi": 3327,
      "Ġgifted": 3328,
      "ccol": 3329,
      "Ġpracticed": 3330,
      "Ġdelight": 3331,
      "ccoli": 3332,
      "Ġharsh": 3333,
      "Ġdust": 3334,
      "Ġpow": 3335,
      "asses": 3336,
      "Ġbicy": 3337,
      "azz": 3338,
      "Ġspaghetti": 3339,
      "Ġcompassion": 3340,
      "Ġsailed": 3341,
      "urkey": 3342,
      "Ġforward": 3343,
      "ubby": 3344,
      "Ġpersistent": 3345,
      "Ġspeed": 3346,
      "Ġmitten": 3347,
      "Ġpro": 3348,
      "Ġcocoa": 3349,
      "Ġenvel": 3350,
      "ĠBuzz": 3351,
      "Ġquestions": 3352,
      "Ġcomputer": 3353,
      "Ġcoo": 3354,
      "Ġfeathers": 3355,
      "Ġglove": 3356,
      "ging": 3357,
      "Ġrice": 3358,
      "Ġshrimp": 3359,
      "Ġdesk": 3360,
      "Ġstream": 3361,
      "Ġinse": 3362,
      "Ġpigeon": 3363,
      "Ġcharming": 3364,
      "hip": 3365,
      "Ġears": 3366,
      "Ġcarp": 3367,
      "lcan": 3368,
      "Ġenvious": 3369,
      "Ġknot": 3370,
      "Ġturkey": 3371,
      "Ġstronger": 3372,
      "omes": 3373,
      "Ġcoins": 3374,
      "Ġtap": 3375,
      "Ġraft": 3376,
      "lcano": 3377,
      "weet": 3378,
      "Ġtrap": 3379,
      "ĠPolly": 3380,
      "umbers": 3381,
      "Ġaeroplane": 3382,
      "Ġtrunk": 3383,
      "Ġwheat": 3384,
      "Ġboxes": 3385,
      "Ġchubby": 3386,
      "Ġcarpet": 3387,
      "Ġrestless": 3388,
      "Ġintelligent": 3389,
      "Ġtube": 3390,
      "Ġspun": 3391,
      "Ġdreams": 3392,
      "Ġhalf": 3393,
      "Ġfriendship": 3394,
      "ulif": 3395,
      "olin": 3396,
      "ĠMummy": 3397,
      "Ġloop": 3398,
      "Ġcrawl": 3399,
      "Ġbroccoli": 3400,
      "Ġonion": 3401,
      "Ġweek": 3402,
      "Ġdeliver": 3403,
      "Ġacce": 3404,
      "Ġvide": 3405,
      "Ġvolcano": 3406,
      "Ġsle": 3407,
      "Ġtrack": 3408,
      "Ġbri": 3409,
      "Ġcaulif": 3410,
      "Ġvine": 3411,
      "ye": 3412,
      "Ġticket": 3413,
      "Ġthief": 3414,
      "essie": 3415,
      "cycle": 3416,
      "Ġlouder": 3417,
      "Ġinsect": 3418,
      "Ġnumbers": 3419,
      "asing": 3420,
      "Ġyaw": 3421,
      "Ġhaircut": 3422,
      "ital": 3423,
      "Ġsleeping": 3424,
      "ĠAlice": 3425,
      "Ġmill": 3426,
      "Ġalert": 3427,
      "Ġeventually": 3428,
      "Ġexcite": 3429,
      "Ġpebble": 3430,
      "Ġhosp": 3431,
      "Ġattract": 3432,
      "Ġplanet": 3433,
      "anger": 3434,
      "Ġuniver": 3435,
      "isted": 3436,
      "ulu": 3437,
      "Ġeraser": 3438,
      "Ġhospital": 3439,
      "Ġreturned": 3440,
      "Ġdestro": 3441,
      "Ġgraceful": 3442,
      "Ġhappening": 3443,
      "ĠBet": 3444,
      "ache": 3445,
      "ĠOK": 3446,
      "Ġdecide": 3447,
      "Ġlearning": 3448,
      "Ġscreen": 3449,
      "rework": 3450,
      "Ġnicely": 3451,
      "Ġleop": 3452,
      "Ġcauliflower": 3453,
      "Ġcompetitive": 3454,
      "Ġpoem": 3455,
      "Ġcelebrate": 3456,
      "ĠPet": 3457,
      "acht": 3458,
      "Ġcurt": 3459,
      "Ġpeach": 3460,
      "Ġsoldier": 3461,
      "Ġsaus": 3462,
      "Ġparade": 3463,
      "atient": 3464,
      "Ġattractive": 3465,
      "Ġcurtain": 3466,
      "Ġbase": 3467,
      "Ġdolphin": 3468,
      "Ġviolin": 3469,
      "Ġways": 3470,
      "Ġtravel": 3471,
      "ats": 3472,
      "Ġrod": 3473,
      "Ġignorant": 3474,
      "ulb": 3475,
      "Ġwheels": 3476,
      "Ġyacht": 3477,
      "Ġscatter": 3478,
      "Ġdeter": 3479,
      "Ġcompassionate": 3480,
      "Ġbarrel": 3481,
      "Ġenvelope": 3482,
      "Ġbubble": 3483,
      "Ġlying": 3484,
      "Ġfirework": 3485,
      "Go": 3486,
      "ĠLulu": 3487,
      "Ġquestion": 3488,
      "zzy": 3489,
      "Ġscooter": 3490,
      "Ġdeterm": 3491,
      "Ġrag": 3492,
      "Ġthu": 3493,
      "Ġbicycle": 3494,
      "elery": 3495,
      "Ġneedle": 3496,
      "Ġjudge": 3497,
      "Ġbulb": 3498,
      "Ġleopard": 3499,
      "Ġtem": 3500,
      "Ġpony": 3501,
      "Ġcricket": 3502,
      "Ġhomes": 3503,
      "Ġorder": 3504,
      "Ġador": 3505,
      "tern": 3506,
      "Ġtruth": 3507,
      "Ġhook": 3508,
      "dom": 3509,
      "Ġrubbed": 3510,
      "igator": 3511,
      "Ġbushes": 3512,
      "Ġuncle": 3513,
      "ĠMiss": 3514,
      "Ġcushion": 3515,
      "Ġspell": 3516,
      "Ġgrown": 3517,
      "Sue": 3518,
      "Ġcooked": 3519,
      "Ġadorable": 3520,
      "Ġchalk": 3521,
      "Ġsoar": 3522,
      "Ġpurse": 3523,
      "Ġskin": 3524,
      "Ġthemselves": 3525,
      "Ġimpatient": 3526,
      "Ġcelery": 3527,
      "Ġtray": 3528,
      "ĠSh": 3529,
      "Ġshells": 3530,
      "Ġpengu": 3531,
      "Ġsniff": 3532,
      "Ġprun": 3533,
      "Ġwalls": 3534,
      "Ġseal": 3535,
      "ĠPete": 3536,
      "Ġlively": 3537,
      "Ġcase": 3538,
      "Ġalligator": 3539,
      "Ġdistant": 3540,
      "Ġradish": 3541,
      "Ġsaying": 3542,
      "Ġspeak": 3543,
      "Ġmotorcycle": 3544,
      "ĠTina": 3545,
      "Ġmeat": 3546,
      "Ġsend": 3547,
      "ĠBirdy": 3548,
      "Ġspinning": 3549,
      "Ġforth": 3550,
      "illa": 3551,
      "Ġcounting": 3552,
      "Ġenth": 3553,
      "Ġbounced": 3554,
      "Ġchain": 3555,
      "Ġed": 3556,
      "Ġcleaning": 3557,
      "ebra": 3558,
      "Ġfilm": 3559,
      "Ġslept": 3560,
      "Ġpit": 3561,
      "Ġsurf": 3562,
      "Ġmarry": 3563,
      "usia": 3564,
      "Ġwallet": 3565,
      "Ġenthusia": 3566,
      "Ġmetal": 3567,
      "urb": 3568,
      "ebook": 3569,
      "Ġbin": 3570,
      "Ġnotebook": 3571,
      "Ġskip": 3572,
      "Ġwiped": 3573,
      "ision": 3574,
      "chair": 3575,
      "Ġbiggest": 3576,
      "Ġimpro": 3577,
      "Ġavocado": 3578,
      "Ġbehave": 3579,
      "Ġdestroy": 3580,
      "vator": 3581,
      "ĠFo": 3582,
      "Ġbandage": 3583,
      "Ġlaughs": 3584,
      "Ġsteak": 3585,
      "Ġpattern": 3586,
      "Ġpost": 3587,
      "Ġelevator": 3588,
      "Ġdive": 3589,
      "Ġshut": 3590,
      "Ġskipped": 3591,
      "Ġunlock": 3592,
      "Ġdiary": 3593,
      "dest": 3594,
      "ject": 3595,
      "Ġmint": 3596,
      "Ġzebra": 3597,
      "Ġbags": 3598,
      "ating": 3599,
      "Ġarmchair": 3600,
      "rage": 3601,
      "aged": 3602,
      "Ġdisturb": 3603,
      "Ġoy": 3604,
      "Ġpole": 3605,
      "Ġshowing": 3606,
      "Ġclub": 3607,
      "Ġgathered": 3608,
      "Ġnurse": 3609,
      "bul": 3610,
      "Ġearth": 3611,
      "Ġenc": 3612,
      "Sp": 3613,
      "Ġstranger": 3614,
      "Ġsweater": 3615,
      "Ġjellyfish": 3616,
      "Ġscrew": 3617,
      "ĠSusie": 3618,
      "ĠRob": 3619,
      "Ġtemp": 3620,
      "Ġcompl": 3621,
      "Ġmixer": 3622,
      "Give": 3623,
      "Ġskull": 3624,
      "Ġlime": 3625,
      "Ġbump": 3626,
      "bulance": 3627,
      "ĠCl": 3628,
      "Ġambulance": 3629,
      "nam": 3630,
      "Ġfather": 3631,
      "Ġjournal": 3632,
      "Ġloudly": 3633,
      "ito": 3634,
      "Ġfolder": 3635,
      "Ġshield": 3636,
      "Ġlibrary": 3637,
      "Ġbuttons": 3638,
      "Ġplayground": 3639,
      "Ġtrucks": 3640,
      "Ġink": 3641,
      "Ġlights": 3642,
      "Ġtummy": 3643,
      "Ġpointing": 3644,
      "Ġcity": 3645,
      "Ġdecorate": 3646,
      "Ġstation": 3647,
      "irit": 3648,
      "Ġprep": 3649,
      "Ġfalls": 3650,
      "quito": 3651,
      "Ġfu": 3652,
      "ention": 3653,
      "nger": 3654,
      "ĠRose": 3655,
      "Ġherb": 3656,
      "Ġornam": 3657,
      "Ġornament": 3658,
      "Ġmodest": 3659,
      "Ġguard": 3660,
      "lies": 3661,
      "Ġmos": 3662,
      "Ġknows": 3663,
      "Ġcord": 3664,
      "Ġpolish": 3665,
      "Ġmarble": 3666,
      "Ġmosquito": 3667,
      "umbled": 3668,
      "Ġsalt": 3669,
      "Ġattic": 3670,
      "Ġwhenever": 3671,
      "Ġvest": 3672,
      "ctop": 3673,
      "Ġresc": 3674,
      "Ġyet": 3675,
      "Ġple": 3676,
      "Ġdisappeared": 3677,
      "oby": 3678,
      "ceed": 3679,
      "Ġonce": 3680,
      "Ġstrawberry": 3681,
      "Ġkay": 3682,
      "Ġbrothers": 3683,
      "Ġitch": 3684,
      "Ġpirate": 3685,
      "Ġfootball": 3686,
      "Ġsplit": 3687,
      "kele": 3688,
      "keleton": 3689,
      "Ġhipp": 3690,
      "Ġaut": 3691,
      "Ġled": 3692,
      "uring": 3693,
      "ctopus": 3694,
      "Ġdriving": 3695,
      "Ġcable": 3696,
      "Ġsupport": 3697,
      "Ġcalling": 3698,
      "Ġcupboard": 3699,
      "aky": 3700,
      "ĠSunny": 3701,
      "ushed": 3702,
      "Ġwishes": 3703,
      "Ġcomplet": 3704,
      "Ġtripped": 3705,
      "ĠTweet": 3706,
      "ĠPeople": 3707,
      "Ġroot": 3708,
      "Ġkayak": 3709,
      "Ġoctopus": 3710,
      "obile": 3711,
      "Ġadded": 3712,
      "ĠZoom": 3713,
      "Ġedge": 3714,
      "Ġmild": 3715,
      "stic": 3716,
      "Ġdetermined": 3717,
      "Ġsucceed": 3718,
      "?\".": 3719,
      "Ġreading": 3720,
      "omobile": 3721,
      "Ġcoal": 3722,
      "gl": 3723,
      "utes": 3724,
      "Ġsuggest": 3725,
      "par": 3726,
      "Well": 3727,
      "Ġstack": 3728,
      "Ġthunder": 3729,
      "Ġkindness": 3730,
      "Ġautomobile": 3731,
      "Ġcomplain": 3732,
      "Ġenthusiastic": 3733,
      "Ġsneeze": 3734,
      "Ġcartoon": 3735,
      "Ġyoga": 3736,
      "Ġgrowl": 3737,
      "htub": 3738,
      "Ġflea": 3739,
      "Ġmeadow": 3740,
      "Ġdrawer": 3741,
      "Ġbathtub": 3742,
      "Ġribb": 3743,
      "ophone": 3744,
      "Ġhall": 3745,
      "Ġgolf": 3746,
      "Ġmeans": 3747,
      "Ġskeleton": 3748,
      "ĠBetty": 3749,
      "Ġmath": 3750,
      "Ġveil": 3751,
      "Ġhunter": 3752,
      "Re": 3753,
      "Ġgor": 3754,
      "Ġflame": 3755,
      "Ġpoke": 3756,
      "Ġvideo": 3757,
      "Ġchess": 3758,
      "Ġcups": 3759,
      "Ġglowing": 3760,
      "Ġmatt": 3761,
      "Ġoyster": 3762,
      "work": 3763,
      "Ġpenny": 3764,
      "Ġspear": 3765,
      "Ġitself": 3766,
      "essert": 3767,
      "Ġdrawings": 3768,
      "Ġhippo": 3769,
      "Ġrepair": 3770,
      "Ġswitch": 3771,
      "glasses": 3772,
      "Ġsunglasses": 3773,
      "Ġteleph": 3774,
      "Ġcostume": 3775,
      "Ġdessert": 3776,
      "Ġzipp": 3777,
      ",âĢĿ": 3778,
      "Ġrepe": 3779,
      "Ġmuffin": 3780,
      "Ġarg": 3781,
      "Ġpastry": 3782,
      "Ġpun": 3783,
      "Ġrolling": 3784,
      "Ġminutes": 3785,
      "Ġmakeup": 3786,
      "Ġpacked": 3787,
      "iron": 3788,
      "ric": 3789,
      "Ġwaffle": 3790,
      "case": 3791,
      "Ġhandle": 3792,
      "Ġpear": 3793,
      "Ġmaze": 3794,
      "Ġtelephone": 3795,
      "ĠToby": 3796,
      "ophy": 3797,
      "Ġpine": 3798,
      "ait": 3799,
      "ĠPippin": 3800,
      "Ġgear": 3801,
      "Ġhedge": 3802,
      "Ġmattress": 3803,
      "Ġpackage": 3804,
      "aving": 3805,
      "Ġshocked": 3806,
      "ines": 3807,
      "Ġtrophy": 3808,
      "Ġpowder": 3809,
      "Ġknight": 3810,
      "Ġcob": 3811,
      "ĠBessie": 3812,
      "Ġmissile": 3813,
      "Ġframe": 3814,
      "Ġmanaged": 3815,
      "Ġencou": 3816,
      "Ġwife": 3817,
      "Spot": 3818,
      "Ġok": 3819,
      "Ġsepar": 3820,
      "web": 3821,
      "Ġstairs": 3822,
      "Ġrot": 3823,
      "Ġcamp": 3824,
      "time": 3825,
      "rophone": 3826,
      "urch": 3827,
      "Ġmagaz": 3828,
      "Ġstrugg": 3829,
      "Ġcolour": 3830,
      "Ġgrapes": 3831,
      "old": 3832,
      "Ġfile": 3833,
      "ĠZip": 3834,
      "head": 3835,
      "Ġbasketball": 3836,
      "Bye": 3837,
      "per": 3838,
      "Ġcobweb": 3839,
      "Ġperm": 3840,
      "Ġwool": 3841,
      "Ġmicrophone": 3842,
      "esday": 3843,
      "Ġeye": 3844,
      "Ġleash": 3845,
      "Ġgasp": 3846,
      "iew": 3847,
      "keep": 3848,
      "Ġweep": 3849,
      "ĠSpike": 3850,
      "Ġbarking": 3851,
      "ature": 3852,
      "Ġsafely": 3853,
      "Ġtear": 3854,
      "ĠSnow": 3855,
      "Ġview": 3856,
      "Ġslides": 3857,
      "offe": 3858,
      "Ġsteps": 3859,
      "istol": 3860,
      "offee": 3861,
      "Ġbananas": 3862,
      "Ġstaff": 3863,
      "Ġspirit": 3864,
      "Ġtask": 3865,
      "Ġgiggled": 3866,
      "Ġhoc": 3867,
      "ĠLook": 3868,
      "Ġhockey": 3869,
      "Ġvend": 3870,
      "Ġthose": 3871,
      "Ġgorilla": 3872,
      "Ġcooler": 3873,
      "was": 3874,
      "cing": 3875,
      "Ġearly": 3876,
      "Ġmarched": 3877,
      "rosc": 3878,
      "washer": 3879,
      "Ġflour": 3880,
      "Ġhotel": 3881,
      "Ġsailor": 3882,
      "ĠMar": 3883,
      "hic": 3884,
      "Ġphoto": 3885,
      "roscope": 3886,
      "Ġvehic": 3887,
      "ilot": 3888,
      "Ġoft": 3889,
      "Ġoften": 3890,
      "Ġchurch": 3891,
      "Ġcooking": 3892,
      "Ġremain": 3893,
      "ĠNext": 3894,
      "hin": 3895,
      "Ġfive": 3896,
      "ĠMrs": 3897,
      "otter": 3898,
      "Ġsausage": 3899,
      "Ġten": 3900,
      "Ġtools": 3901,
      "See": 3902,
      "Ġmedal": 3903,
      "Ġeither": 3904,
      "Ġfireman": 3905,
      "chor": 3906,
      "Ġgrandpa": 3907,
      "Ġotter": 3908,
      "Ġbaseball": 3909,
      "Ġpistol": 3910,
      "Ġpretending": 3911,
      "Ġdishwasher": 3912,
      "Ġrever": 3913,
      "Ġorganize": 3914,
      "Ġpee": 3915,
      "Ġvendor": 3916,
      "Ġknock": 3917,
      "Ġsight": 3918,
      "Ġgrill": 3919,
      "Ġtemple": 3920,
      "Ġbattery": 3921,
      "Ġthinking": 3922,
      "Ġopens": 3923,
      "Ġow": 3924,
      "ĠKim": 3925,
      "ĠGrandpa": 3926,
      "Ġrealised": 3927,
      "Ġiron": 3928,
      "Ġlaser": 3929,
      "Ġsne": 3930,
      "Ġoil": 3931,
      "Ġsandbox": 3932,
      "ĠUn": 3933,
      "Ġpatch": 3934,
      "Ġhours": 3935,
      "Ġrise": 3936,
      "Ġwhip": 3937,
      "ne": 3938,
      "'d": 3939,
      "ctory": 3940,
      "ĠGive": 3941,
      "Ġanchor": 3942,
      "Ġtrash": 3943,
      "Ġskirt": 3944,
      "ense": 3945,
      "Ġshort": 3946,
      "ney": 3947,
      "Ġrhin": 3948,
      "Ġfactory": 3949,
      "seum": 3950,
      "Ġmay": 3951,
      "Ġward": 3952,
      "ately": 3953,
      "Ġcardboard": 3954,
      "ugged": 3955,
      "Ġlotion": 3956,
      "Ġmessage": 3957,
      "Ġvalu": 3958,
      "Ġwardrobe": 3959,
      "Ġcell": 3960,
      "Ġmuseum": 3961,
      "apers": 3962,
      "Ġur": 3963,
      "ination": 3964,
      "Ġhanging": 3965,
      "eer": 3966,
      "ucet": 3967,
      "ailable": 3968,
      "Ġhive": 3969,
      "Ġtowers": 3970,
      "keeper": 3971,
      "Ġblackboard": 3972,
      "Ġmem": 3973,
      "Ġexcitement": 3974,
      "Ġcoffee": 3975,
      "Ġpilot": 3976,
      "ready": 3977,
      "Ġnapkin": 3978,
      "Ġpenguin": 3979,
      "Ġcheck": 3980,
      "loo": 3981,
      "ron": 3982,
      "Ġreward": 3983,
      "Ġquit": 3984,
      "Ġcane": 3985,
      "Ġpicking": 3986,
      "place": 3987,
      "azor": 3988,
      "Ġig": 3989,
      "Ġfaucet": 3990,
      "Ġpassport": 3991,
      "Ġstumbled": 3992,
      "Ġdreamed": 3993,
      "Ġigloo": 3994,
      "enny": 3995,
      "aroo": 3996,
      "angaroo": 3997,
      "Ġfreez": 3998,
      "Ġjuicy": 3999,
      "Ġallowed": 4000,
      "play": 4001,
      "Ġholds": 4002,
      "Ġalready": 4003,
      "Ġavailable": 4004,
      "Ġsett": 4005,
      "Ġbathe": 4006,
      "ĠEverywhere": 4007,
      "Ġtornado": 4008,
      "imney": 4009,
      "Ġfingers": 4010,
      "htray": 4011,
      "Ġhanger": 4012,
      "Ġnewsp": 4013,
      "Ġsize": 4014,
      "Ġlaund": 4015,
      "Ġlend": 4016,
      "Ġchimney": 4017,
      "ĠBefore": 4018,
      "Ġlaundry": 4019,
      "Ġoak": 4020,
      "Ġfisher": 4021,
      "Ġkangaroo": 4022,
      "Ġmen": 4023,
      "Ġtelling": 4024,
      "Ġnovel": 4025,
      "body": 4026,
      "Ġmummy": 4027,
      "Ġpal": 4028,
      "Ġmule": 4029,
      "Ġcherries": 4030,
      "Ġnotice": 4031,
      "Ġpractice": 4032,
      "Ġspilled": 4033,
      "Ġreind": 4034,
      "Ġcomplete": 4035,
      "Ġenjoying": 4036,
      "Ġmicroscope": 4037,
      "Ġgain": 4038,
      "ampoo": 4039,
      "Ġsub": 4040,
      "Ġfireplace": 4041,
      "Ġimagine": 4042,
      "anda": 4043,
      "Ġdisplay": 4044,
      "ocer": 4045,
      "Ġfastest": 4046,
      "Ġmagazine": 4047,
      "Ġhurry": 4048,
      "Ġcabinet": 4049,
      "Ġshrink": 4050,
      "ĠTeddy": 4051,
      "Ġashtray": 4052,
      "Wait": 4053,
      "Ġcows": 4054,
      "gen": 4055,
      "Ġpalace": 4056,
      "Ġimprove": 4057,
      "aches": 4058,
      "arian": 4059,
      "Ġrake": 4060,
      "Ġreindeer": 4061,
      "Ġfalling": 4062,
      "ilet": 4063,
      "oceros": 4064,
      "ured": 4065,
      "ĠMandy": 4066,
      "Ġdiscovered": 4067,
      "Ġstared": 4068,
      "Ġroared": 4069,
      "aid": 4070,
      "Ġsilver": 4071,
      "Ġtub": 4072,
      "Ġtrail": 4073,
      "Ġminer": 4074,
      "There": 4075,
      "come": 4076,
      "Ġbill": 4077,
      "Ġfog": 4078,
      "iction": 4079,
      "Ġax": 4080,
      "stairs": 4081,
      "Ġhut": 4082,
      "Ġhappier": 4083,
      "Ġtoilet": 4084,
      "Ġtaller": 4085,
      "ictionary": 4086,
      "Ġoats": 4087,
      "Ġfisherman": 4088,
      "Ġobject": 4089,
      "Ġpor": 4090,
      "vision": 4091,
      "Ġvaluable": 4092,
      "Ġshampoo": 4093,
      "ĠHere": 4094,
      "Ġholes": 4095,
      "Ġoffered": 4096,
      "Ġboots": 4097,
      "Ġrhinoceros": 4098,
      "Ġnames": 4099,
      "ĠDolly": 4100,
      "Ġclimbing": 4101,
      "Ġblin": 4102,
      "vice": 4103,
      "Ġstretched": 4104,
      "iest": 4105,
      "Ġzipper": 4106,
      "Is": 4107,
      "Ġlistening": 4108,
      "Ġsym": 4109,
      "Ġbathrobe": 4110,
      "alend": 4111,
      "Ġjewelry": 4112,
      "Ġjokes": 4113,
      "Ġtelevision": 4114,
      "Ġprov": 4115,
      "Ġcalend": 4116,
      "Ġstops": 4117,
      "Ġaxe": 4118,
      "Ġjumps": 4119,
      "Ġfuel": 4120,
      "cu": 4121,
      "Ġsparkly": 4122,
      "Ġperfume": 4123,
      "Ġbury": 4124,
      "bol": 4125,
      "Ġpressed": 4126,
      "Ow": 4127,
      "lu": 4128,
      "reek": 4129,
      "Ġrece": 4130,
      "Ġneat": 4131,
      "Ġcreek": 4132,
      "Ġpopped": 4133,
      "Ġopera": 4134,
      "Ġcalendar": 4135,
      "Ġsnap": 4136,
      "Ġattach": 4137,
      "Ġgasped": 4138,
      "Ġsymbol": 4139,
      "Ġtuna": 4140,
      "Ġpapers": 4141,
      "Ġunpack": 4142,
      "Ġresist": 4143,
      "Ġdictionary": 4144,
      "Ġsubway": 4145,
      "Ġletters": 4146,
      "Ġfreezer": 4147,
      "Ġchose": 4148,
      "Ġpinch": 4149,
      "ĠMike": 4150,
      "zag": 4151,
      "Ġspoke": 4152,
      "Ġanyway": 4153,
      "Ġsuper": 4154,
      "Ġhelper": 4155,
      "Ġporch": 4156,
      "affe": 4157,
      "Ġbikes": 4158,
      "Ġlie": 4159,
      "iches": 4160,
      "Ġcomfort": 4161,
      "Ġtightly": 4162,
      "Ġshaking": 4163,
      "Ġbookcase": 4164,
      "ĠPandy": 4165,
      "Ġson": 4166,
      "ĠAre": 4167,
      "Ġrazor": 4168,
      "aurant": 4169,
      "Ġsandwiches": 4170,
      "arry": 4171,
      "Ġext": 4172,
      "igzag": 4173,
      "Ġweigh": 4174,
      "Ġagainst": 4175,
      "Ġstickers": 4176,
      "Ġrestaurant": 4177,
      "Ġnewspaper": 4178,
      "Ġblouse": 4179,
      "te": 4180,
      "Ġvehicle": 4181,
      "Ġswinging": 4182,
      "Ġped": 4183,
      "Ġdisag": 4184,
      "Ġnature": 4185,
      "Ġsquirrels": 4186,
      "Ġbelongs": 4187,
      "ival": 4188,
      "Ġswamp": 4189,
      "Ġbutterflies": 4190,
      "Ġgym": 4191,
      "del": 4192,
      "Ġinclu": 4193,
      "Ġgrowing": 4194,
      "Ġbuckle": 4195,
      "omed": 4196,
      "Ġstirred": 4197,
      "Ġmustache": 4198,
      "Ġbillboard": 4199,
      "xy": 4200,
      "Ġbeep": 4201,
      "Ġalarm": 4202,
      "Ġlip": 4203,
      "Ġfest": 4204,
      "Ġlightning": 4205,
      "Ġhung": 4206,
      "utor": 4207,
      "Ġdistance": 4208,
      "Ġcards": 4209,
      "ogn": 4210,
      "Ġobser": 4211,
      "Ġagree": 4212,
      "Ġtease": 4213,
      "Ġrecogn": 4214,
      "Ġrubber": 4215,
      "ik": 4216,
      "Ġhate": 4217,
      "Ġsof": 4218,
      "fast": 4219,
      "Ġdoesn": 4220,
      "Ġmusician": 4221,
      "Ġadvice": 4222,
      "Ġfort": 4223,
      "Ġbeef": 4224,
      "Ġserve": 4225,
      "Ouch": 4226,
      "aspoon": 4227,
      "Ġsweetie": 4228,
      "ef": 4229,
      "Ġmodel": 4230,
      "lter": 4231,
      "Ġblueberries": 4232,
      "Ġcrib": 4233,
      "Ġsofa": 4234,
      "Ġcircles": 4235,
      "Ġbreakfast": 4236,
      "Ġtutor": 4237,
      "asis": 4238,
      "Ġbookshe": 4239,
      "ĠEllie": 4240,
      "Ġgiraffe": 4241,
      "stri": 4242,
      "Ġfestival": 4243,
      "Ġseparate": 4244,
      "Ġshelter": 4245,
      "Ġgas": 4246,
      "Ġairport": 4247,
      "Ġolive": 4248,
      "ĠCo": 4249,
      "ĠDave": 4250,
      "Ġrail": 4251,
      "Ġbookshelf": 4252,
      "Ġfrogs": 4253,
      "Ġteaspoon": 4254,
      "Ġreverse": 4255,
      "Ġjunk": 4256,
      "Ġriding": 4257,
      "Ġpleased": 4258,
      "Ġdrain": 4259,
      "Ġwipe": 4260,
      "Ġoasis": 4261,
      "Ġsoil": 4262,
      "Ġahead": 4263,
      "Ġrescue": 4264,
      "Ġleaving": 4265,
      "ĠBill": 4266,
      "ummer": 4267,
      "ĠBubb": 4268,
      "Ġpainter": 4269,
      "Ġchance": 4270,
      "Ġsqueeze": 4271,
      "Ġknob": 4272,
      "Ġpoked": 4273,
      "Ġpeeked": 4274,
      "Ġlumber": 4275,
      "Dad": 4276,
      "Ġtrains": 4277,
      "la": 4278,
      "Ġextra": 4279,
      "Ġslipp": 4280,
      "ĠJohnny": 4281,
      "Ġquiz": 4282,
      "Ġrefused": 4283,
      "res": 4284,
      "rmomet": 4285,
      "Ġpage": 4286,
      "Ġrules": 4287,
      "Ġhappens": 4288,
      "Ġins": 4289,
      "Ġsounded": 4290,
      "Ġwinter": 4291,
      "ĠV": 4292,
      "Ġdancer": 4293,
      "Ġbirdc": 4294,
      "Ġdisappear": 4295,
      "rmometer": 4296,
      "ĠCarl": 4297,
      "Ġwaste": 4298,
      "Ġweather": 4299,
      "Ġlic": 4300,
      "Ġbirdcage": 4301,
      "Ġtheater": 4302,
      "Ġreef": 4303,
      "Ġcarrying": 4304,
      "ĠSpe": 4305,
      "Ġinvite": 4306,
      "ĠBow": 4307,
      "iform": 4308,
      "Ġgoal": 4309,
      "Ġostri": 4310,
      "Ġswung": 4311,
      "Ġuniform": 4312,
      "Ġtrade": 4313,
      "Ġcliff": 4314,
      "ience": 4315,
      "Ġlawn": 4316,
      "ola": 4317,
      "Ġleaned": 4318,
      "angu": 4319,
      "Ġaccept": 4320,
      "They": 4321,
      "ĠBoun": 4322,
      "Ġadmire": 4323,
      "Ġaccidentally": 4324,
      "Ġpastel": 4325,
      "Ġstom": 4326,
      "Ġlangu": 4327,
      "ĠLee": 4328,
      "Ġtwir": 4329,
      "Ġsuff": 4330,
      "Ġpanda": 4331,
      "na": 4332,
      "riger": 4333,
      "Ġbet": 4334,
      "rigerator": 4335,
      "Ġpeek": 4336,
      "render": 4337,
      "Ġblinked": 4338,
      "Ġstarts": 4339,
      "Ġrefrigerator": 4340,
      "Ġanywhere": 4341,
      "!\".": 4342,
      "Ġimagined": 4343,
      "Ġdreaming": 4344,
      "Ġremove": 4345,
      "night": 4346,
      "Ġshower": 4347,
      "Ġceiling": 4348,
      "Ġclassroom": 4349,
      "Ġcaring": 4350,
      "ĠBuzzy": 4351,
      "ium": 4352,
      "ĠSoph": 4353,
      "ĠWhere": 4354,
      "Ġgrand": 4355,
      "ĠJazz": 4356,
      "Ġmissing": 4357,
      "aked": 4358,
      "Ġlicense": 4359,
      "Ġstable": 4360,
      "Ġthermometer": 4361,
      "ĠBig": 4362,
      "Ġmonkeys": 4363,
      "astic": 4364,
      "Ġwarned": 4365,
      "Ġsummer": 4366,
      "Ġabove": 4367,
      "Ġbrick": 4368,
      "ected": 4369,
      "Ġcudd": 4370,
      "med": 4371,
      "ĠPat": 4372,
      "Ġproblems": 4373,
      "amber": 4374,
      "Ġchasing": 4375,
      "Ġapron": 4376,
      "Ġlabel": 4377,
      "Ġsent": 4378,
      "iture": 4379,
      "urniture": 4380,
      "Ġlawy": 4381,
      "Ġlid": 4382,
      "uggage": 4383,
      "ĠBinky": 4384,
      "Ġrespectful": 4385,
      "Ġfurniture": 4386,
      "Ġfrowned": 4387,
      "Ġzoomed": 4388,
      "Ġpages": 4389,
      "Ġprevent": 4390,
      "Ġbent": 4391,
      "ĠEventually": 4392,
      "Ġluggage": 4393,
      "ĠRed": 4394,
      "ĠLola": 4395,
      "Ġmistakes": 4396,
      "Ġsunset": 4397,
      "Ġostrich": 4398,
      "He": 4399,
      "ison": 4400,
      "Ġsuggested": 4401,
      "Ġwindows": 4402,
      "ations": 4403,
      "Ġjail": 4404,
      "Ġwine": 4405,
      "ĠFreddy": 4406,
      "Ġribbon": 4407,
      "Ġolder": 4408,
      "Ġshouts": 4409,
      "Ġgrape": 4410,
      "Ġwigg": 4411,
      "ucture": 4412,
      "Ġstructure": 4413,
      "Ġspoil": 4414,
      "eor": 4415,
      "Ġfixing": 4416,
      "Ġchamber": 4417,
      "Ġlions": 4418,
      "Ġdelay": 4419,
      "Ġfinds": 4420,
      "Ġhanded": 4421,
      "Ġsearching": 4422,
      "Ġunite": 4423,
      "Ġfought": 4424,
      "Ġlawyer": 4425,
      "Ġbrightly": 4426,
      "Ġmeeting": 4427,
      "Ġpair": 4428,
      "Did": 4429,
      "Ġchoice": 4430,
      "Ġart": 4431,
      "ĠHel": 4432,
      "Ġsurprises": 4433,
      "Ġfavour": 4434,
      "eterin": 4435,
      "adium": 4436,
      "eterinarian": 4437,
      "ĠY": 4438,
      "Ġstadium": 4439,
      "low": 4440,
      "Ġproudly": 4441,
      "iki": 4442,
      "ĠGeor": 4443,
      "Ġveterinarian": 4444,
      "vet": 4445,
      "Ġchairs": 4446,
      "Ġslip": 4447,
      "rod": 4448,
      "Ann": 4449,
      "Ġsadly": 4450,
      "Ġincre": 4451,
      "Ġpuddles": 4452,
      "Ġberry": 4453,
      "Ġintrod": 4454,
      "Ġranch": 4455,
      "veal": 4456,
      "Ġargue": 4457,
      "Ġadmired": 4458,
      "ĠOlive": 4459,
      "Ġcur": 4460,
      "Ġfavourite": 4461,
      "ĠPa": 4462,
      "Ġinf": 4463,
      "Your": 4464,
      "Ġexcitedly": 4465,
      "Ġrac": 4466,
      "Ġgrabs": 4467,
      "mend": 4468,
      "Ġsteam": 4469,
      "thank": 4470,
      "Ġhuman": 4471,
      "ĠRu": 4472,
      "sity": 4473,
      "ĠSpeedy": 4474,
      "Ġpushing": 4475,
      "Ġsaving": 4476,
      "Ġreveal": 4477,
      "ommend": 4478,
      "Ġyield": 4479,
      "alley": 4480,
      "olog": 4481,
      "Ġmall": 4482,
      "Ġreminded": 4483,
      "Ġrecommend": 4484,
      "Ġleak": 4485,
      "Ġsurrender": 4486,
      "Ġharb": 4487,
      "Ġappl": 4488,
      "cuss": 4489,
      "Ġweap": 4490,
      "Ġregret": 4491,
      "Ġputting": 4492,
      "Ġvalley": 4493,
      "ĠBubbles": 4494,
      "ĠGeorge": 4495,
      "ĠLilly": 4496,
      "Ġmineral": 4497,
      "Ġevening": 4498,
      "elcome": 4499,
      "Ġforgave": 4500,
      "Ġmatches": 4501,
      "Ġsneezed": 4502,
      "Ġaw": 4503,
      "Ġpup": 4504,
      "Ġrushed": 4505,
      "ecause": 4506,
      "Ġspade": 4507,
      "Ġapolog": 4508,
      "Ġplates": 4509,
      "Ġdiscuss": 4510,
      "Ġprepare": 4511,
      "Ġharbor": 4512,
      "Ġignore": 4513,
      "ĠOw": 4514,
      "Ġcountry": 4515,
      "Ġlanguage": 4516,
      "Ġpulls": 4517,
      "Ġplastic": 4518,
      "Ġsupply": 4519,
      "Ġfloat": 4520,
      "Ġsniffed": 4521,
      "Ġreplace": 4522,
      "Ġmeas": 4523,
      "Ġshovel": 4524,
      "Ġraise": 4525,
      "Ġstrip": 4526,
      "Ġfre": 4527,
      "Ġcared": 4528,
      "Ġsocks": 4529,
      "Ġdoors": 4530,
      "Ġmystery": 4531,
      "Ġlives": 4532,
      "Ġrestore": 4533,
      "Ġsticker": 4534,
      "Ġsudden": 4535,
      "ero": 4536,
      "Ġkinds": 4537,
      "ĠPaul": 4538,
      "Ġslippery": 4539,
      "Ġplayer": 4540,
      "ĠZoomy": 4541,
      "Ġpanic": 4542,
      "Ġhoping": 4543,
      "ĠUnder": 4544,
      "ricane": 4545,
      "iday": 4546,
      "Ġshone": 4547,
      "lex": 4548,
      "ari": 4549,
      "hero": 4550,
      "Ġbeg": 4551,
      "Anna": 4552,
      "Ġsuperhero": 4553,
      "ĠKiki": 4554,
      "Ġdelighted": 4555,
      "Ġgro": 4556,
      "aud": 4557,
      "chan": 4558,
      "Ġchickens": 4559,
      "ĠCharl": 4560,
      "Ġshoulder": 4561,
      "Ġrained": 4562,
      "Ġcolourful": 4563,
      "Ġbreat": 4564,
      "Ġclaw": 4565,
      "Ġsoftly": 4566,
      "rise": 4567,
      "Ġport": 4568,
      "Ġhol": 4569,
      "icer": 4570,
      "Ġholiday": 4571,
      "oof": 4572,
      "Ġbarks": 4573,
      "ason": 4574,
      "Ġthrowing": 4575,
      "Ġplanes": 4576,
      "Ġbend": 4577,
      "Yay": 4578,
      "Ġshakes": 4579,
      "oe": 4580,
      "Ġended": 4581,
      "Ġinfant": 4582,
      "Ġshivering": 4583,
      "Ġkneel": 4584,
      "Ġsunrise": 4585,
      "Yuck": 4586,
      "Ġpushes": 4587,
      "Ġthanks": 4588,
      "Ġfresh": 4589,
      "Ġsuffer": 4590,
      "Ġpoints": 4591,
      "imed": 4592,
      "wards": 4593,
      "Ġtip": 4594,
      "Ġfreeze": 4595,
      "Ġkeeping": 4596,
      "ĠWould": 4597,
      "Ġcopper": 4598,
      "Ġgiggle": 4599,
      "ĠAlex": 4600,
      "Ġsmells": 4601,
      "Ġdear": 4602,
      "Ġenter": 4603,
      "Ġprovide": 4604,
      "ĠEnd": 4605,
      "cast": 4606,
      "chanic": 4607,
      "Ġdishes": 4608,
      "cond": 4609,
      "Ġunh": 4610,
      "Ġapplaud": 4611,
      "Ġheads": 4612,
      "Ġhurricane": 4613,
      "ĠTed": 4614,
      "Ġcherry": 4615,
      "Ġmass": 4616,
      "Ġthumb": 4617,
      "Ġmeowed": 4618,
      "Ġmenu": 4619,
      "Ġsecond": 4620,
      "Ġbrighter": 4621,
      "ince": 4622,
      "Ġsandcast": 4623,
      "Ġmechanic": 4624,
      "Mia": 4625,
      "Ġwre": 4626,
      "ĠDanny": 4627,
      "Ġsprayed": 4628,
      "Ġevent": 4629,
      "Ġletting": 4630,
      "Ġweapon": 4631,
      "Ġlaught": 4632,
      "Ġx": 4633,
      "Ġlaughter": 4634,
      "ĠGrace": 4635,
      "Ġclapping": 4636,
      "Ġfeelings": 4637,
      "ĠOr": 4638,
      "icky": 4639,
      "Ġsplashing": 4640,
      "ement": 4641,
      "acked": 4642,
      "Ġcastles": 4643,
      "ĠJoey": 4644,
      "One": 4645,
      "cer": 4646,
      "Ġscore": 4647,
      "apping": 4648,
      "Ġuniverse": 4649,
      "Ġnavy": 4650,
      "ĠHoppy": 4651,
      "Ġdem": 4652,
      "Ġsticky": 4653,
      "Ġrow": 4654,
      "Ġrooms": 4655,
      "Ġflies": 4656,
      "igi": 4657,
      "Ġunhappy": 4658,
      "Ġgreedy": 4659,
      "ĠSophie": 4660,
      "Ġdare": 4661,
      "Ġalive": 4662,
      "Ġbreaks": 4663,
      "Ġener": 4664,
      "ĠBee": 4665,
      "Ġcourage": 4666,
      "Ġinvit": 4667,
      "Ġrepeat": 4668,
      "Ġdemand": 4669,
      "Ready": 4670,
      "ĠGigi": 4671,
      "Ġtrusted": 4672,
      "Ġsomewhere": 4673,
      "Ġprune": 4674,
      "bles": 4675,
      "Ġwreck": 4676,
      "Ġskill": 4677,
      "Ġexamine": 4678,
      "Ġparts": 4679,
      "ĠHen": 4680,
      "year": 4681,
      "Ġeaten": 4682,
      "erc": 4683,
      "Ġmention": 4684,
      "ĠHelp": 4685,
      "Ġraining": 4686,
      "ĠAnnie": 4687,
      "Ġthrows": 4688,
      "Ġjogged": 4689,
      "quest": 4690,
      "Ġstarting": 4691,
      "Ġrush": 4692,
      "ĠCharlie": 4693,
      "ĠSque": 4694,
      "Ġchirp": 4695,
      "Ġpoison": 4696,
      "Ġpirates": 4697,
      "heart": 4698,
      "Ġvac": 4699,
      "Ġcontent": 4700,
      "ĠSu": 4701,
      "Ġsigh": 4702,
      "Ġflapped": 4703,
      "Ġdrops": 4704,
      "Ġsport": 4705,
      "Qu": 4706,
      "Ġsparkled": 4707,
      "ĠHenry": 4708,
      "Ġgiven": 4709,
      "Ġstreng": 4710,
      "Ġsteel": 4711,
      "Ġbumped": 4712,
      "Ġyawned": 4713,
      "Ġstud": 4714,
      "Ġrequest": 4715,
      "Ġscold": 4716,
      "Ġmyself": 4717,
      "Ġstrength": 4718,
      "Ġshrugged": 4719,
      "Ġcoats": 4720,
      "Ġpunish": 4721,
      "Ġequ": 4722,
      "Ġsnugg": 4723,
      "ĠSm": 4724,
      "Ġuniversity": 4725,
      "Ġpaid": 4726,
      "Ġpigs": 4727,
      "Ġscratch": 4728,
      "Ġtoe": 4729,
      "Ġexerc": 4730,
      "Ġtracks": 4731,
      "Ġupstairs": 4732,
      "Ġprayed": 4733,
      "Ġcrossed": 4734,
      "Ġsqueezed": 4735,
      "Ġflood": 4736,
      "Ġimpressed": 4737,
      "Ġexpect": 4738,
      "Ġbouncing": 4739,
      "Ġrhy": 4740,
      "Ġrabbits": 4741,
      "ges": 4742,
      "Ġbadly": 4743,
      "..": 4744,
      "Ġleather": 4745,
      "Ġwarn": 4746,
      "Ġnews": 4747,
      "Ġtide": 4748,
      "ĠLucky": 4749,
      "Ġminute": 4750,
      "ĠSnowy": 4751,
      "Ġbears": 4752,
      "Ġclaws": 4753,
      "Ġbuzz": 4754,
      "Ġsweetheart": 4755,
      "Ġnation": 4756,
      "ĠSk": 4757,
      "thm": 4758,
      "Ġheat": 4759,
      "Ġhist": 4760,
      "Ġvacation": 4761,
      "Ġstrawberries": 4762,
      "Ġobserve": 4763,
      "Ġexplored": 4764,
      "Ġsettle": 4765,
      "Ġsandcastle": 4766,
      "Ġyawn": 4767,
      "Ġhistory": 4768,
      "ĠFinny": 4769,
      "mare": 4770,
      "ĠSee": 4771,
      "ĠFinn": 4772,
      "ially": 4773,
      "inking": 4774,
      "Ġbelieved": 4775,
      "Ġhorses": 4776,
      "ĠElly": 4777,
      "Ġchecked": 4778,
      "Ġtour": 4779,
      "Ġnetwork": 4780,
      "Ġcheek": 4781,
      "Ġoffer": 4782,
      "Ġeasily": 4783,
      "Ġplaced": 4784,
      "spec": 4785,
      "Ġspots": 4786,
      "Ġsnowball": 4787,
      "ween": 4788,
      "men": 4789,
      "Ġenergy": 4790,
      "Ġimagination": 4791,
      "Ġblueberry": 4792,
      "otten": 4793,
      "Ġbetween": 4794,
      "specially": 4795,
      "izes": 4796,
      "Ġdaisy": 4797,
      "Ġwaving": 4798,
      "reeze": 4799,
      "reat": 4800,
      "ĠHarry": 4801,
      "ĠFox": 4802,
      "ĠTilly": 4803,
      "Ġvroom": 4804,
      "Ġsoak": 4805,
      "Ġsafari": 4806,
      "Ġrhythm": 4807,
      "Ġmassage": 4808,
      "Ġstomach": 4809,
      "Ġbaking": 4810,
      "quake": 4811,
      "Ġnightmare": 4812,
      "Ġinsisted": 4813,
      "Ġblowing": 4814,
      "Ġentered": 4815,
      "Ġstair": 4816,
      "Ġpalm": 4817,
      "Ġbeauty": 4818,
      "Ġtwisted": 4819,
      "Ġbother": 4820,
      "Ġwriting": 4821,
      "Ġscoop": 4822,
      "Ġprunes": 4823,
      "Ġbrain": 4824,
      "Ġing": 4825,
      "ĠPenny": 4826,
      "ipment": 4827,
      "Ġpoppy": 4828,
      "Ġhills": 4829,
      "noon": 4830,
      "Ġafternoon": 4831,
      "Ġespecially": 4832,
      "Ġequipment": 4833,
      "hest": 4834,
      "Ġsir": 4835,
      "Ġpad": 4836,
      "Ġingred": 4837,
      "Ġcalls": 4838,
      "Ġingredient": 4839,
      "Ġearthquake": 4840,
      "Ġignored": 4841,
      "Ġburned": 4842,
      "Ġnobody": 4843,
      "mble": 4844,
      "Ġsty": 4845,
      "apa": 4846,
      "Ġsew": 4847,
      "Ġtug": 4848,
      "isty": 4849,
      "Ġhearts": 4850,
      "xygen": 4851,
      "Ġlear": 4852,
      "Ġlearnt": 4853,
      "Ġlemonade": 4854,
      "Sh": 4855,
      "Ġincrease": 4856,
      "ĠMaria": 4857,
      "Ġgaz": 4858,
      "Ġbackpack": 4859,
      "Ġmailman": 4860,
      "Ġwhistled": 4861,
      "Ġpedal": 4862,
      "Ġshopkeeper": 4863,
      "ffic": 4864,
      "Ġpermit": 4865,
      "Ġtremble": 4866,
      "ĠMill": 4867,
      "Ġyucky": 4868,
      "anges": 4869,
      "Ġmoves": 4870,
      "ĠZara": 4871,
      "Ġintroduce": 4872,
      "Ġlemons": 4873,
      "Ġcrash": 4874,
      "Ġbeans": 4875,
      "ĠMag": 4876,
      "Ġfloated": 4877,
      "edn": 4878,
      "ednesday": 4879,
      "ittens": 4880,
      "ĠWednesday": 4881,
      "Ġplanned": 4882,
      "ĠCoco": 4883,
      "Welcome": 4884,
      "ĠRos": 4885,
      "Ġstrike": 4886,
      "Ġtraffic": 4887,
      "Lucy": 4888,
      "Ġinclude": 4889,
      "Ġslap": 4890,
      "Ġracing": 4891,
      "resses": 4892,
      "ĠWhenever": 4893,
      "Ġwisdom": 4894,
      "Ġpur": 4895,
      "Ġwags": 4896,
      "laimed": 4897,
      "Ġluck": 4898,
      "Ġfollowing": 4899,
      "Ġprice": 4900,
      "ecting": 4901,
      "Ġmama": 4902,
      "Ġpitch": 4903,
      "Ġbelow": 4904,
      "ĠHave": 4905,
      "ĠSandy": 4906,
      "ĠPip": 4907,
      "ĠSqueaky": 4908,
      "Ġweight": 4909,
      "Ġexclaimed": 4910,
      "house": 4911,
      "ĠOwl": 4912,
      "uct": 4913,
      "Ġburied": 4914,
      "Ġcomf": 4915,
      "Ġfollows": 4916,
      "Ġrecognize": 4917,
      "Ġingredients": 4918,
      "ĠFroggy": 4919,
      "ĠMittens": 4920,
      "ĠDog": 4921,
      "Ġfurt": 4922,
      "tain": 4923,
      "Ġcandles": 4924,
      "ĠBounce": 4925,
      "Ġmarbles": 4926,
      "riage": 4927,
      "unday": 4928,
      "emember": 4929,
      "eration": 4930,
      "ĠSunday": 4931,
      "Ġapart": 4932,
      "Ġgrowled": 4933,
      "ĠIs": 4934,
      "ĠWho": 4935,
      "ores": 4936,
      "Ġconf": 4937,
      "Ġhopes": 4938,
      "Ġteaching": 4939,
      "Ġfolded": 4940,
      "Ġclosely": 4941,
      "Ġheel": 4942,
      "Ġencourage": 4943,
      "ĠKate": 4944,
      "Ġzigzag": 4945,
      "Ġpulling": 4946,
      "Ġdigg": 4947,
      "Ġbouncy": 4948,
      "ĠMillie": 4949,
      "ippy": 4950,
      "Ġfurther": 4951,
      "Ġchewed": 4952,
      "Ġdigging": 4953,
      "Ġwinning": 4954,
      "nce": 4955,
      "Woof": 4956,
      "Ġdresses": 4957,
      "Ġimage": 4958,
      "rec": 4959,
      "cery": 4960,
      "Ġshouting": 4961,
      "ĠRock": 4962,
      "Ġgrocery": 4963,
      "Ġtwisty": 4964,
      "Sara": 4965,
      "Ġpeanuts": 4966,
      "Ġpuzzles": 4967,
      "ĠJames": 4968,
      "bbing": 4969,
      "look": 4970,
      "Ġscrat": 4971,
      "Ġchores": 4972,
      "Ġwhisper": 4973,
      "Ġspike": 4974,
      "Ġcape": 4975,
      "Ġsnail": 4976,
      "Ġacorns": 4977,
      "Ġworms": 4978,
      "hood": 4979,
      "ĠTw": 4980,
      "Ġdeeper": 4981,
      "Ġurge": 4982,
      "ĠPinky": 4983,
      "ifi": 4984,
      "ĠRo": 4985,
      "ĠTony": 4986,
      "ĠBluey": 4987,
      "Ġplanted": 4988,
      "Ġattention": 4989,
      "ecture": 4990,
      "Ġexercise": 4991,
      "ĠBaby": 4992,
      "ĠPapa": 4993,
      "Ġexper": 4994,
      "Ġcub": 4995,
      "Ġoperation": 4996,
      "Ġunderground": 4997,
      "Ġhon": 4998,
      "Ġagre": 4999,
      "Ġquite": 5000,
      "Ġcreatures": 5001,
      "Ġsimp": 5002,
      "Ġstruggle": 5003,
      "oral": 5004,
      "ddy": 5005,
      "Ġblood": 5006,
      "Ġlecture": 5007,
      "ĠFifi": 5008,
      "Ġwashing": 5009,
      "ĠMay": 5010,
      "Ġhurting": 5011,
      "Ġgifts": 5012,
      "Ġvanished": 5013,
      "ĠSharing": 5014,
      "Ġdressed": 5015,
      "Ġinvitation": 5016,
      "Ġsolved": 5017,
      "Ġlicks": 5018,
      "Ġsnuggled": 5019,
      "ĠRuby": 5020,
      "Ġble": 5021,
      "Ġmarriage": 5022,
      "Ġquietly": 5023,
      "gie": 5024,
      "To": 5025,
      "Ġwarning": 5026,
      "Ġjazz": 5027,
      "Ġbreathe": 5028,
      "reci": 5029,
      "Ġelephants": 5030,
      "ĠTu": 5031,
      "Ġsizes": 5032,
      "Bob": 5033,
      "Ġdried": 5034,
      "Ġfallen": 5035,
      "Ġlandscape": 5036,
      "ories": 5037,
      "Ġsprink": 5038,
      "Ġneighbour": 5039,
      "Ġmice": 5040,
      "Ġappreci": 5041,
      "ĠTuesday": 5042,
      "ĠâĢĵ": 5043,
      "Ġeagerly": 5044,
      "Ġsailing": 5045,
      "ĠGood": 5046,
      "Ġpaused": 5047,
      "ips": 5048,
      "Ġcounter": 5049,
      "And": 5050,
      "Ġworth": 5051,
      "looking": 5052,
      "ĠLiz": 5053,
      "ĠFirst": 5054,
      "Ġoxygen": 5055,
      "Ġrelease": 5056,
      "Ġshined": 5057,
      "pted": 5058,
      "Ġreaches": 5059,
      "Ġbalan": 5060,
      "isses": 5061,
      "Ġoh": 5062,
      "Ġkisses": 5063,
      "Ġstyle": 5064,
      "Ġbricks": 5065,
      "Ġplays": 5066,
      "Ġglo": 5067,
      "Ġideas": 5068,
      "sed": 5069,
      "Ġinst": 5070,
      "ĠSte": 5071,
      "Ġwob": 5072,
      "Ġfireworks": 5073,
      "Will": 5074,
      "ĠKat": 5075,
      "ĠEverything": 5076,
      "iggly": 5077,
      "ucked": 5078,
      "Ġseeing": 5079,
      "Ġflap": 5080,
      "Ġaccepted": 5081,
      "Ġblink": 5082,
      "mm": 5083,
      "Ġtremb": 5084,
      "Ġmuddy": 5085,
      "Ġmemory": 5086,
      "Ġmarried": 5087,
      "Ġtomatoes": 5088,
      "Ġexit": 5089,
      "These": 5090,
      "ops": 5091,
      "Ġwagging": 5092,
      "Ġfash": 5093,
      "ĠJul": 5094,
      "Ġwandered": 5095,
      "unately": 5096,
      "ipping": 5097,
      "right": 5098,
      "Ġgloves": 5099,
      "ĠEach": 5100,
      "Ġcaptain": 5101,
      "Ġpillows": 5102,
      "Ġreceive": 5103,
      "Ġresp": 5104,
      "raged": 5105,
      "Ġduring": 5106,
      "Not": 5107,
      "etch": 5108,
      "Ġweb": 5109,
      "Ġpetals": 5110,
      "Ġwatered": 5111,
      "Because": 5112,
      "ived": 5113,
      "Ġmanage": 5114,
      "ĠRosie": 5115,
      "Ġbrings": 5116,
      "Ġpinched": 5117,
      "Ġcakes": 5118,
      "Ġvanish": 5119,
      "Ġfashion": 5120,
      "Ġprinter": 5121,
      "Ġdestroyed": 5122,
      "ĠAb": 5123,
      "Ġtreasures": 5124,
      "Ġallow": 5125,
      "ĠClara": 5126,
      "ups": 5127,
      "Ġhadn": 5128,
      "Ġworse": 5129,
      "Ġvel": 5130,
      "Ġhits": 5131,
      "Ġbur": 5132,
      "do": 5133,
      "xu": 5134,
      "Ġvelvet": 5135,
      "Ġappear": 5136,
      "Ġdisagree": 5137,
      "Ġcatching": 5138,
      "Ġscattered": 5139,
      "Ġmemories": 5140,
      "Ġsorts": 5141,
      "Ġhers": 5142,
      "Ġscolded": 5143,
      "Ġpears": 5144,
      "Ġoranges": 5145,
      "Ġsigns": 5146,
      "Ġbones": 5147,
      "Ġrang": 5148,
      "Ġsnapped": 5149,
      "Ġsits": 5150,
      "Ġseats": 5151,
      "ĠUncle": 5152,
      "uxu": 5153,
      "Ġgazed": 5154,
      "Ġraised": 5155,
      "ĠSpark": 5156,
      "ĠWiggly": 5157,
      "ĠPr": 5158,
      "Ġsi": 5159,
      "ĠGod": 5160,
      "Ġzipped": 5161,
      "Ġpies": 5162,
      "Ġprints": 5163,
      "Ġshot": 5164,
      "Ġsliding": 5165,
      "Ġfro": 5166,
      "Ġeasier": 5167,
      "ssible": 5168,
      "Ġskills": 5169,
      "urprise": 5170,
      "Ġclimbs": 5171,
      "Ġtwirled": 5172,
      "Ġblankets": 5173,
      "Ġforgotten": 5174,
      "Ġbaked": 5175,
      "ester": 5176,
      "Ġdifference": 5177,
      "esterday": 5178,
      "Ġluxu": 5179,
      "orted": 5180,
      "Ġgolden": 5181,
      "ccer": 5182,
      "Yum": 5183,
      "ising": 5184,
      "Ġkitty": 5185,
      "Ġcutting": 5186,
      "Ġseason": 5187,
      "Ġnowhere": 5188,
      "Ġcrow": 5189,
      "ĠWally": 5190,
      "Ġsoccer": 5191,
      "Ġdared": 5192,
      "ah": 5193,
      "Ġbites": 5194,
      "Ġlung": 5195,
      "Ġcelebrated": 5196,
      "choo": 5197,
      "chie": 5198,
      "Ġstraight": 5199,
      "Ġunlocked": 5200,
      "sters": 5201,
      "ĠMe": 5202,
      "ĠAn": 5203,
      "Ġsorting": 5204,
      "Ġcollected": 5205,
      "Ġbleed": 5206,
      "ĠMoral": 5207,
      "aped": 5208,
      "ding": 5209,
      "Ġwelcomed": 5210,
      "Ġvisited": 5211,
      "Ġspoons": 5212,
      "ĠOut": 5213,
      "Ġours": 5214,
      "Ġstitch": 5215,
      "ĠMaggie": 5216,
      "Ġjogging": 5217,
      "ĠTuna": 5218,
      "medi": 5219,
      "Ġemer": 5220,
      "mediately": 5221,
      "Ġisn": 5222,
      "Ġtong": 5223,
      "Ġtrave": 5224,
      "Ġwinner": 5225,
      "umble": 5226,
      "Surprise": 5227,
      "Ġsince": 5228,
      "Ġruin": 5229,
      "Ġprett": 5230,
      "Ok": 5231,
      "Ġattached": 5232,
      "ĠKing": 5233,
      "Ġweeping": 5234,
      "Ġmarching": 5235,
      "Ġluxury": 5236,
      "Ġsimple": 5237,
      "Ġshouldn": 5238,
      "Ġguessed": 5239,
      "Ġzero": 5240,
      "Ġcreated": 5241,
      "Ġstuffed": 5242,
      "Ġpets": 5243,
      "ĠSmith": 5244,
      "ction": 5245,
      "Ġwaist": 5246,
      "Ġfamil": 5247,
      "Ġurged": 5248,
      "Ġbowed": 5249,
      "Ġselling": 5250,
      "ĠGr": 5251,
      "Ġfloating": 5252,
      "ĠSuzy": 5253,
      "Ġbye": 5254,
      "Ġvict": 5255,
      "Ġkingdom": 5256,
      "Ġolives": 5257,
      "Ġkicking": 5258,
      "Ġpunished": 5259,
      "sit": 5260,
      "ĠQu": 5261,
      "ĠBo": 5262,
      "Ġtoes": 5263,
      "Ġgrant": 5264,
      "Ġmuscles": 5265,
      "Ġjewels": 5266,
      "Ġbeds": 5267,
      "Ġmelted": 5268,
      "Ġslice": 5269,
      "Goodbye": 5270,
      "Ġgrin": 5271,
      "Ġunderstanding": 5272,
      "rr": 5273,
      "Ġcollection": 5274,
      "Ġtore": 5275,
      "Ġmeasured": 5276,
      "Ġcras": 5277,
      "aker": 5278,
      "ĠBoth": 5279,
      "ĠSlow": 5280,
      "iers": 5281,
      "Ġtrapped": 5282,
      "omeday": 5283,
      "ĠDr": 5284,
      "Ġlined": 5285,
      "'ve": 5286,
      "Ġacted": 5287,
      "fortunately": 5288,
      "Ġencouraged": 5289,
      "va": 5290,
      "Ġreceived": 5291,
      "Ġwaffles": 5292,
      "ĠChe": 5293,
      "Ġwest": 5294,
      "Ġmeow": 5295,
      "ents": 5296,
      "Ġpatterns": 5297,
      "ĠDin": 5298,
      "ĠBoo": 5299,
      "Ġbrus": 5300,
      "Ġmouths": 5301,
      "kins": 5302,
      "Ġbang": 5303,
      "ring": 5304,
      "Meow": 5305,
      "Ġpeaches": 5306,
      "Ġbreeze": 5307,
      "aded": 5308,
      "une": 5309,
      "Ġprinted": 5310,
      "Ġsoldiers": 5311,
      "Ġsomeday": 5312,
      "Ġpotatoes": 5313,
      "Ġpupil": 5314,
      "umes": 5315,
      "Ġresult": 5316,
      "Ġdrinks": 5317,
      "Ġshed": 5318,
      "Ġexperience": 5319,
      "Ġpresents": 5320,
      "Ġfiref": 5321,
      "Ġsurround": 5322,
      "Ġnone": 5323,
      "Ġvoices": 5324,
      "osed": 5325,
      "Ġdrinking": 5326,
      "ishing": 5327,
      "Ġrelaxed": 5328,
      "Ġvictory": 5329,
      "cus": 5330,
      "Ġbreaking": 5331,
      "Ġpaints": 5332,
      "Ġhurried": 5333,
      "Ġtwink": 5334,
      "ission": 5335,
      "Ġtongue": 5336,
      "eep": 5337,
      "Ġcostumes": 5338,
      "Ġflat": 5339,
      "Ġmentioned": 5340,
      "Ġbegged": 5341,
      "Ġteasing": 5342,
      "Ġwhistling": 5343,
      "Ġfetch": 5344,
      "Ġpermission": 5345,
      "Ġsip": 5346,
      "Ġdisagreed": 5347,
      "ĠThese": 5348,
      "Ġpearl": 5349,
      "Ġsix": 5350,
      "ĠToto": 5351,
      "Amy": 5352,
      "akes": 5353,
      "Ġstro": 5354,
      "vest": 5355,
      "ĠRocky": 5356,
      "Ġesc": 5357,
      "Ġappro": 5358,
      "Ġskipping": 5359,
      "Ġfishing": 5360,
      "Ġhighest": 5361,
      "Ġpra": 5362,
      "Ġwatches": 5363,
      "Ġsorted": 5364,
      "ĠChicky": 5365,
      "Ġringing": 5366,
      "ship": 5367,
      "Ġtonight": 5368,
      "Ġopin": 5369,
      "Ġlets": 5370,
      "icing": 5371,
      "Next": 5372,
      "Ġperfectly": 5373,
      "Ġshadows": 5374,
      "Ġimmediately": 5375,
      "Ġherbs": 5376,
      "Ġwarmth": 5377,
      "Ġspit": 5378,
      "Ġremained": 5379,
      "ĠIts": 5380,
      "ther": 5381,
      "walk": 5382,
      "ĠPepper": 5383,
      "irring": 5384,
      "Ġsneak": 5385,
      "Ġlips": 5386,
      "Ġkneeled": 5387,
      "ĠMilly": 5388,
      "Ġcontest": 5389,
      "utter": 5390,
      "Ġcartoons": 5391,
      "Mr": 5392,
      "Ġsidewalk": 5393,
      "Ġcolours": 5394,
      "Ġstamps": 5395,
      "ĠFollow": 5396,
      "Ġago": 5397,
      "Ġeast": 5398,
      "Ġheaded": 5399,
      "oved": 5400,
      "\",": 5401,
      "Ġstrang": 5402,
      "Ha": 5403,
      "Ġfed": 5404,
      "Ġladyb": 5405,
      "Ġsupposed": 5406,
      "ĠSky": 5407,
      "Ġlick": 5408,
      "Ġroots": 5409,
      "Ġcrunch": 5410,
      "ĠHop": 5411,
      "ĠDino": 5412,
      "Ġmixing": 5413,
      "Ġworks": 5414,
      "Ġdecorations": 5415,
      "Ġknown": 5416,
      "Ġmelting": 5417,
      "Ġemergen": 5418,
      "Ġrested": 5419,
      "Ġlines": 5420,
      "Ġlily": 5421,
      "Ġinstr": 5422,
      "Ġlaid": 5423,
      "Ġcones": 5424,
      "Ġsucceeded": 5425,
      "Ġwiggle": 5426,
      "ety": 5427,
      "sing": 5428,
      "Ġshock": 5429,
      "Ġsetting": 5430,
      "ĠFrank": 5431,
      "Ġstudied": 5432,
      "Ġstrangers": 5433,
      "ĠZigzag": 5434,
      "Ġtwigs": 5435,
      "Really": 5436,
      "Ġbrid": 5437,
      "Ġtheirs": 5438,
      "Ġgirls": 5439,
      "boo": 5440,
      "!\",": 5441,
      "Ġscreams": 5442,
      "Ġlands": 5443,
      "Ġordered": 5444,
      "ĠHowever": 5445,
      "Ġstirring": 5446,
      "Ġmoments": 5447,
      "Ġfields": 5448,
      "Ġalright": 5449,
      "Ġstealing": 5450,
      "ded": 5451,
      "Ġrul": 5452,
      "Ġbravely": 5453,
      "avid": 5454,
      "Ġmister": 5455,
      "!'": 5456,
      "Ġinvest": 5457,
      "Ġscratched": 5458,
      "Ġplaytime": 5459,
      "Ġripped": 5460,
      "Ġinvestig": 5461,
      "Ġtucked": 5462,
      "Ġresting": 5463,
      "Ġburning": 5464,
      "ishes": 5465,
      "ĠMo": 5466,
      "Ġbridges": 5467,
      "Ġtext": 5468,
      "ĠAm": 5469,
      "Ġofficer": 5470,
      "please": 5471,
      "ĠSteve": 5472,
      "abies": 5473,
      "ĠDavid": 5474,
      "Ġsettled": 5475,
      "Ġachie": 5476,
      "Ġmatched": 5477,
      "ĠSomeone": 5478,
      "Ġtexture": 5479,
      "Ġturning": 5480,
      "Ġwaits": 5481,
      "ored": 5482,
      "Ġtrembling": 5483,
      "isten": 5484,
      "Ġnails": 5485,
      "Ġmuffins": 5486,
      "ĠUnfortunately": 5487,
      "ids": 5488,
      "Ġescaped": 5489,
      "Ġpiles": 5490,
      "Ġinvestigate": 5491,
      "Ġbroom": 5492,
      "osity": 5493,
      "Ġladybug": 5494,
      "Ġsore": 5495,
      "ĠHappy": 5496,
      "Ġadmir": 5497,
      "Ġappreciate": 5498,
      "ĠLizzy": 5499,
      "Ġthreat": 5500,
      "Ġbabies": 5501,
      "Ġsilence": 5502,
      "Ġsisters": 5503,
      "Ġarea": 5504,
      "Ġemergency": 5505,
      "ides": 5506,
      "Ġdads": 5507,
      "ĠSlowly": 5508,
      "ĠFrog": 5509,
      "Ġanswers": 5510,
      "Ġpupp": 5511,
      "Little": 5512,
      "Ġkeys": 5513,
      "ĠHope": 5514,
      "Ġchewing": 5515,
      "Ġslapped": 5516,
      "Ġwiz": 5517,
      "Ġimportance": 5518,
      "Ġserved": 5519,
      "Ġsafety": 5520,
      "ĠBug": 5521,
      "izing": 5522,
      "ĠRabbit": 5523,
      "Would": 5524,
      "ĠKatie": 5525,
      "Ġsparkle": 5526,
      "Ġtouching": 5527,
      "Ġsoared": 5528,
      "igail": 5529,
      "Ġsings": 5530,
      "Ġhen": 5531,
      "allen": 5532,
      "bers": 5533,
      "antly": 5534,
      "Ġkeeps": 5535,
      "Ġamazement": 5536,
      "Ġchallen": 5537,
      "ĠEl": 5538,
      "Ġhesit": 5539,
      "Ġtwin": 5540,
      "Ġrevealed": 5541,
      "anna": 5542,
      "achel": 5543,
      "Ġdire": 5544,
      "Ġitem": 5545,
      "Ġsoaked": 5546,
      "zing": 5547,
      "Ġwrit": 5548,
      "ĠAbigail": 5549,
      "Ġfoods": 5550,
      "Ġdinosaurs": 5551,
      "Ġrides": 5552,
      "ĠRachel": 5553,
      "Ġrecorded": 5554,
      "Ġtickle": 5555,
      "Ġinch": 5556,
      "Ġwizard": 5557,
      "Ġvet": 5558,
      "Ġtrips": 5559,
      "Ġglowed": 5560,
      "ĠSomething": 5561,
      "ĠMat": 5562,
      "ĠNot": 5563,
      "Mmm": 5564,
      "Ġhi": 5565,
      "Ġbeamed": 5566,
      "Ġquack": 5567,
      "Ġcurled": 5568,
      "Ġhated": 5569,
      "Ġwink": 5570,
      "Ġshopping": 5571,
      "Ġeats": 5572,
      "ĠBeep": 5573,
      "Ġpraised": 5574,
      "Ġwooden": 5575,
      "Ġbringing": 5576,
      "Ġmittens": 5577,
      "Ġstudying": 5578,
      "Ġguy": 5579,
      "Happy": 5580,
      "int": 5581,
      "Ġbrushes": 5582,
      "ĠAunt": 5583,
      "Ġspaceship": 5584,
      "Ġgust": 5585,
      "Ġcrawling": 5586,
      "ĠJoy": 5587,
      "Ġruler": 5588,
      "Ġflav": 5589,
      "Ġdownstairs": 5590,
      "ĠZoe": 5591,
      "Ġshooting": 5592,
      "Ġnapping": 5593,
      "Ġtastes": 5594,
      "ĠStar": 5595,
      "Ġmarks": 5596,
      "Ġsprinkles": 5597,
      "Ġcuddled": 5598,
      "Ġdot": 5599,
      "hello": 5600,
      "Ġfut": 5601,
      "ales": 5602,
      "aved": 5603,
      "Ġfuture": 5604,
      "Ġmonsters": 5605,
      "Ġcollecting": 5606,
      "Ġmeasuring": 5607,
      "'.": 5608,
      "Ġfamilies": 5609,
      "Kitty": 5610,
      "Ġthrill": 5611,
      "Ġoat": 5612,
      "Ġapproached": 5613,
      "act": 5614,
      "Ġcrunchy": 5615,
      "Ġremem": 5616,
      "Ġbleeding": 5617,
      "Ġremembers": 5618,
      "ĠHo": 5619,
      "Ġnicer": 5620,
      "Ġbeat": 5621,
      "ĠJess": 5622,
      "ibb": 5623,
      "Ġsneaky": 5624,
      "Ġdisturbed": 5625,
      "Ġleader": 5626,
      "ĠBeh": 5627,
      "Ġscaring": 5628,
      "ĠRay": 5629,
      "Ġpeel": 5630,
      "Ġfiremen": 5631,
      "ĠDid": 5632,
      "Ġneighborhood": 5633,
      "Ġgrey": 5634,
      "Boo": 5635,
      "Ġmotion": 5636,
      "Ġnoon": 5637,
      "Ġpossible": 5638,
      "Ġapologized": 5639,
      "ĠBehind": 5640,
      "Or": 5641,
      "Ġweighed": 5642,
      "ues": 5643,
      "ĠSad": 5644,
      "Ġtickets": 5645,
      "Ġnaps": 5646,
      "When": 5647,
      "Ġloose": 5648,
      "Jo": 5649,
      "Ġpride": 5650,
      "Ġyouth": 5651,
      "ĠSqu": 5652,
      "Ġswims": 5653,
      "ped": 5654,
      "Ġstrings": 5655,
      "Ġrecognized": 5656,
      "Ġsiren": 5657,
      "Ġpoking": 5658,
      "fied": 5659,
      "She": 5660,
      "cious": 5661,
      "ha": 5662,
      "elvet": 5663,
      "Ġtricked": 5664,
      "Ġwonders": 5665,
      "Ġgained": 5666,
      "Ġwanting": 5667,
      "Ġcrashed": 5668,
      "Ġobe": 5669,
      "Ġseesaw": 5670,
      "Ġworker": 5671,
      "unnies": 5672,
      "ĠJam": 5673,
      "oming": 5674,
      "Ġdraws": 5675,
      "Ġscooped": 5676,
      ".'": 5677,
      "Ġzooming": 5678,
      "Ġopinion": 5679,
      "Ġyelling": 5680,
      "ĠVelvet": 5681,
      "Ġprepared": 5682,
      "ĠPippa": 5683,
      "Ġgrinned": 5684,
      "Ġawe": 5685,
      "ĠFriend": 5686,
      "Ġdoggy": 5687,
      "Ġpoems": 5688,
      "Ġacting": 5689,
      "Ġhappiest": 5690,
      "ĠAlways": 5691,
      "Ġchef": 5692,
      "Ġsneaked": 5693,
      "Ġrespons": 5694,
      "Ġeff": 5695,
      "ĠCar": 5696,
      "Ġbunnies": 5697,
      "Ġowned": 5698,
      "ĠJe": 5699,
      "Ġanytime": 5700,
      "Ġstruck": 5701,
      "Ġpedals": 5702,
      "ena": 5703,
      "Ġknelt": 5704,
      "oys": 5705,
      "ĠNan": 5706,
      "Ġsecrets": 5707,
      "Ġpause": 5708,
      "Ġdecorated": 5709,
      "Ġhorns": 5710,
      "Ġagreement": 5711,
      "ĠRobby": 5712,
      "ided": 5713,
      "Ġfrost": 5714,
      "ĠDuring": 5715,
      "Ġtallest": 5716,
      "Ġobey": 5717,
      "ĠJu": 5718,
      "ĠChr": 5719,
      "ogo": 5720,
      "ĠStop": 5721,
      "ĠBy": 5722,
      "Remember": 5723,
      "Ġdecides": 5724,
      "Have": 5725,
      "ĠJan": 5726,
      "Ġbehaved": 5727,
      "Ġtugged": 5728,
      "Ġgran": 5729,
      "Ġsides": 5730,
      "Ġwoof": 5731,
      "Ġslim": 5732,
      "zen": 5733,
      "Ġgoodnight": 5734,
      "Ġkeeper": 5735,
      "Ġsparkling": 5736,
      "Ġchirped": 5737,
      "Ġprecious": 5738,
      "mother": 5739,
      "ien": 5740,
      "lier": 5741,
      "Ġrepeated": 5742,
      "Ġclaps": 5743,
      "indy": 5744,
      "Ġcontain": 5745,
      "affes": 5746,
      "Ġsnowballs": 5747,
      "rs": 5748,
      "Ġourselves": 5749,
      "ĠStitch": 5750,
      "ĠBree": 5751,
      "allow": 5752,
      "Ġgiraffes": 5753,
      "Ġbalancing": 5754,
      "Ġkindly": 5755,
      "ĠLike": 5756,
      "Ġspending": 5757,
      "omas": 5758,
      "Ġwrites": 5759,
      "ays": 5760,
      "ppers": 5761,
      "Ġprop": 5762,
      "ĠBouncy": 5763,
      "Ġhissed": 5764,
      "ĠAd": 5765,
      "Ġfrozen": 5766,
      "Ġfrosting": 5767,
      "Ġeffort": 5768,
      "ĠSpl": 5769,
      "Ġbuzzing": 5770,
      "Ġstruggled": 5771,
      "ud": 5772,
      "Sally": 5773,
      "Ġadmiring": 5774,
      "Ġrele": 5775,
      "Ġsweeties": 5776,
      "Ġslimy": 5777,
      "Ġbrushed": 5778,
      "ĠGogo": 5779,
      "ĠBirdie": 5780,
      "Ġbloomed": 5781,
      "Ġpolished": 5782,
      "ĠDare": 5783,
      "Al": 5784,
      "ĠThomas": 5785,
      "Ġcomfy": 5786,
      "Ġboo": 5787,
      "Ġstaying": 5788,
      "ĠGreen": 5789,
      "Ġrubbing": 5790,
      "Ġrocking": 5791,
      "Ġpockets": 5792,
      "Ġthrilled": 5793,
      "Ġbeside": 5794,
      "ĠAva": 5795,
      "Ġcomple": 5796,
      "Ġeight": 5797,
      "isdom": 5798,
      "urry": 5799,
      "Ġmachines": 5800,
      "iggy": 5801,
      "Ġearlier": 5802,
      "Ġyesterday": 5803,
      "Ġseems": 5804,
      "Ġrust": 5805,
      "ĠJulie": 5806,
      "ĠOlly": 5807,
      "ĠKeep": 5808,
      "Ġtraveled": 5809,
      "Ġfolding": 5810,
      "Ġboom": 5811,
      "Ġcracked": 5812,
      "ities": 5813,
      "Ġhugging": 5814,
      "Ah": 5815,
      "Ġradishes": 5816,
      "Ġloving": 5817,
      "Ġopening": 5818,
      "Ġcircus": 5819,
      "Ġcuriosity": 5820,
      "Ġsurrounded": 5821,
      "Ġspraying": 5822,
      "Ġdemanded": 5823,
      "Ġpaintings": 5824,
      "Ġremoved": 5825,
      "Ġgaze": 5826,
      "oh": 5827,
      "Ġhonk": 5828,
      "Ġpebbles": 5829,
      "Ġhardly": 5830,
      "Ġzookeeper": 5831,
      "Ġcatches": 5832,
      "edding": 5833,
      "Ġsting": 5834,
      "Ġstripes": 5835,
      "Ġpowers": 5836,
      "Ġloaded": 5837,
      "Daddy": 5838,
      "Ġpots": 5839,
      "Ġsplashes": 5840,
      "Ġpetted": 5841,
      "Ġmatching": 5842,
      "Ġtoss": 5843,
      "Ġbelly": 5844,
      "Ġstare": 5845,
      "ĠBeth": 5846,
      "Ġwhatever": 5847,
      "Ġapologize": 5848,
      "Ġrocked": 5849,
      "Ġcomforted": 5850,
      "ĠEveryday": 5851,
      "Ġdecision": 5852,
      "Ġribbons": 5853,
      "ern": 5854,
      "Yummy": 5855,
      "Ġstruggling": 5856,
      "Ch": 5857,
      "Ġexpected": 5858,
      "Ġsteep": 5859,
      "ĠJamie": 5860,
      "Ġprotected": 5861,
      "Ġneighbors": 5862,
      "Ġsmiley": 5863,
      "Ġchases": 5864,
      "ĠLou": 5865,
      "Ġgranted": 5866,
      "Ġcrumb": 5867,
      "ĠWater": 5868,
      "Ġpurred": 5869,
      "Ġdiving": 5870,
      "ĠAbby": 5871,
      "Ġsadness": 5872,
      "Ġorganizing": 5873,
      "Ġeagle": 5874,
      "Ġheroes": 5875,
      "Ġdipped": 5876,
      "ĠSpring": 5877,
      "Ġsunlight": 5878,
      "Ġlied": 5879,
      "Ġpastels": 5880,
      "ĠNina": 5881,
      "ĠBecause": 5882,
      "Ġroads": 5883,
      "Ġsafer": 5884,
      "Ġscru": 5885,
      "Ġargued": 5886,
      "Somet": 5887,
      "Ġgoals": 5888,
      "Ġdiscovery": 5889,
      "ĠSure": 5890,
      "Ġpeered": 5891,
      "Ġvillag": 5892,
      "Ġdeser": 5893,
      "Gra": 5894,
      "ĠSplash": 5895,
      "loe": 5896,
      "use": 5897,
      "Ġtim": 5898,
      "Ġdragons": 5899,
      "ĠMir": 5900,
      "ĠLu": 5901,
      "Ġbuildings": 5902,
      "Ġbuckets": 5903,
      "Ġparties": 5904,
      "Ġbeard": 5905,
      "ĠWisdom": 5906,
      "Ġwedding": 5907,
      "Ġflutter": 5908,
      "Ġplanets": 5909,
      "Ġann": 5910,
      "Ġpolishing": 5911,
      "Ġfasc": 5912,
      "ĠFor": 5913,
      "Ġreleased": 5914,
      "ĠWatch": 5915,
      "Ġcrabs": 5916,
      "Ġtails": 5917,
      "Ġsausages": 5918,
      "ĠCla": 5919,
      "Ġargu": 5920,
      "Bird": 5921,
      "Ġcontro": 5922,
      "Ġbottles": 5923,
      "Ġwiggled": 5924,
      "Ġteased": 5925,
      "ĠZero": 5926,
      "Thanks": 5927,
      "Ġarguing": 5928,
      "Ġsled": 5929,
      "Ġdragged": 5930,
      "Ġpadd": 5931,
      "ĠChloe": 5932,
      "Ġroaring": 5933,
      "ĠJosh": 5934,
      "Ġclearing": 5935,
      "Ġshirts": 5936,
      "Ġmovies": 5937,
      "Ġgathering": 5938,
      "Ġairpl": 5939,
      "Ġwid": 5940,
      "joyed": 5941,
      "ĠRemember": 5942,
      "Ġteaches": 5943,
      "Ġspiders": 5944,
      "Ġlimes": 5945,
      "Ġoverjoyed": 5946,
      "Ġactually": 5947,
      "ĠHippy": 5948,
      "Ġsighs": 5949,
      "Ġcontinue": 5950,
      "anny": 5951,
      "Ġcuddle": 5952,
      "Ġsoaring": 5953,
      "Ġsmallest": 5954,
      "ĠOl": 5955,
      "ĠKay": 5956,
      "Ġdrives": 5957,
      "Ġrip": 5958,
      "Ġsparkles": 5959,
      "Ġsitu": 5960,
      "Ġcubes": 5961,
      "Ġrefres": 5962,
      "Ġtalent": 5963,
      "Ġchallenge": 5964,
      "Ġgrandmother": 5965,
      "umm": 5966,
      "ĠMoo": 5967,
      "Ġpouring": 5968,
      "Ġpretends": 5969,
      "Ġfascin": 5970,
      "ĠHanna": 5971,
      "Ġcuts": 5972,
      "Ġbank": 5973,
      "Ġpeppers": 5974,
      "Ġquarreling": 5975,
      "Ġmane": 5976,
      "ĠBeing": 5977,
      "Ġshivered": 5978,
      "ten": 5979,
      "ĠX": 5980,
      "Ġdusty": 5981,
      "ib": 5982,
      "ley": 5983,
      "Ġwondering": 5984,
      "Ġvillagers": 5985,
      "Ġstretching": 5986,
      "njoy": 5987,
      "Ġweeks": 5988,
      "Ġwherever": 5989,
      "Ġdarker": 5990,
      "jam": 5991,
      "sses": 5992,
      "Ġrings": 5993,
      "Ġonwards": 5994,
      "Ġunited": 5995,
      "ĠBop": 5996,
      "Achoo": 5997,
      "John": 5998,
      "Ġbead": 5999,
      "Ġprettiest": 6000,
      "Ġcaut": 6001,
      "lowers": 6002,
      "Ġrealize": 6003,
      "Ġcompany": 6004,
      "Ġpenguins": 6005,
      "ĠCatty": 6006,
      "Ġbedtime": 6007,
      "Ġcompleted": 6008,
      "ĠLeave": 6009,
      "âĢĿ.": 6010,
      "Ġknights": 6011,
      "Ġcontrol": 6012,
      "Ġflags": 6013,
      "Ġplayroom": 6014,
      "Ġactions": 6015,
      "ĠPrin": 6016,
      "Ġlearns": 6017,
      "Ġgotten": 6018,
      "Ġpatience": 6019,
      "inda": 6020,
      "Ġshrug": 6021,
      "ĠFish": 6022,
      "Ġkites": 6023,
      "ĠTwo": 6024,
      "ĠLena": 6025,
      "Ġresponsible": 6026,
      "Ġfears": 6027,
      "Ġdestination": 6028,
      "Ġwires": 6029,
      "Ġreply": 6030,
      "Ġdam": 6031,
      "Ġwrist": 6032,
      "ĠAnne": 6033,
      "ĠChew": 6034,
      "aws": 6035,
      "ĠEarth": 6036,
      "Ġpacking": 6037,
      "Ġfault": 6038,
      "Ġmountains": 6039,
      "Ġapplauded": 6040,
      "Ġma": 6041,
      "Ġscrubbed": 6042,
      "Ġcrept": 6043,
      "Uh": 6044,
      "Ġsatis": 6045,
      "Fl": 6046,
      "ĠCra": 6047,
      "Mama": 6048,
      "ĠAdam": 6049,
      "Ġthird": 6050,
      "Ġphot": 6051,
      "Ġpencils": 6052,
      "Ġwins": 6053,
      "Ġsticking": 6054,
      "Ġbaker": 6055,
      "Ġvisiting": 6056,
      "Ġwound": 6057,
      "Ġpeas": 6058,
      "Ġuses": 6059,
      "Ġreminder": 6060,
      "ashed": 6061,
      "ĠPut": 6062,
      "Ġjoking": 6063,
      "Ġawake": 6064,
      "Ġinstruct": 6065,
      "Ġstaring": 6066,
      "Ġhealed": 6067,
      "ĠBlink": 6068,
      "Ġhitting": 6069,
      "ĠFriends": 6070,
      "Ġscreaming": 6071,
      "Ġbegin": 6072,
      "ĠLuck": 6073,
      "ĠBrownie": 6074,
      "icorn": 6075,
      "ĠMad": 6076,
      "Ġhelmets": 6077,
      "enty": 6078,
      "Ġunicorn": 6079,
      "ler": 6080,
      "seek": 6081,
      "Ġtowels": 6082,
      "ĠLuckily": 6083,
      "Mum": 6084,
      "ĠHannah": 6085,
      "Ġchips": 6086,
      "ica": 6087,
      "Ġcreation": 6088,
      "Ġwasted": 6089,
      "Sometimes": 6090,
      "Just": 6091,
      "bie": 6092,
      "Ġmasks": 6093,
      "Ġforgi": 6094,
      "Ġitems": 6095,
      "ĠSun": 6096,
      "Ġfirefight": 6097,
      "Ġoutdo": 6098,
      "Ġlollipops": 6099,
      "Ġheav": 6100,
      "ĠMira": 6101,
      "Watch": 6102,
      "Ġguns": 6103,
      "Ġdied": 6104,
      "Ġseas": 6105,
      "Ġglitter": 6106,
      "ĠPrincess": 6107,
      "ĠMouse": 6108,
      "ĠMon": 6109,
      "uddles": 6110,
      "Ġarrive": 6111,
      "ĠClaire": 6112,
      "Silly": 6113,
      "Ġweren": 6114,
      "Ġstole": 6115,
      "Ġscales": 6116,
      "die": 6117,
      "Ġperched": 6118,
      "Ġaccom": 6119,
      "ĠLove": 6120,
      "Ġlogs": 6121,
      "Ġachieve": 6122,
      "Ġpracticing": 6123,
      "ining": 6124,
      "Ġwhose": 6125,
      "Ġpumpkins": 6126,
      "Ġinstructions": 6127,
      "Ġswoop": 6128,
      "Ġbatteries": 6129,
      "Ġcandies": 6130,
      "Ġagrees": 6131,
      "Ġproject": 6132,
      "Ġsnakes": 6133,
      "Ġchirping": 6134,
      "ĠJilly": 6135,
      "Ġshelves": 6136,
      "Ġprotecting": 6137,
      "ĠHoot": 6138,
      "Ġexact": 6139,
      "Ġparked": 6140,
      "Stay": 6141,
      "Ġpatiently": 6142,
      "Ġactiv": 6143,
      "ĠAlly": 6144,
      "Ġshoulders": 6145,
      "Ġvideos": 6146,
      "Ġblows": 6147,
      "Ġpromises": 6148,
      "go": 6149,
      "Ġdent": 6150,
      "ĠMatt": 6151,
      "ners": 6152,
      "uest": 6153,
      "Ġexamined": 6154,
      "Ġairplane": 6155,
      "jamas": 6156,
      "ĠFoxy": 6157,
      "Ġroses": 6158,
      "hee": 6159,
      "Ġaccompl": 6160,
      "Ġtasks": 6161,
      "ĠSquirrel": 6162,
      "ĠSusan": 6163,
      "Ġbeads": 6164,
      "Ġbowls": 6165,
      "Ġcrumbs": 6166,
      "zes": 6167,
      "ĠDot": 6168,
      "ĠWhist": 6169,
      "Ġlistens": 6170,
      "Fluffy": 6171,
      "Ġbunch": 6172,
      "Ġdolphins": 6173,
      "Ġcough": 6174,
      "Ġguest": 6175,
      "Today": 6176,
      "Ex": 6177,
      "ĠCuddles": 6178,
      "cakes": 6179,
      "Ġrequested": 6180,
      "Ġremote": 6181,
      "Ġimproved": 6182,
      "ĠBye": 6183,
      "anta": 6184,
      "Ġbrand": 6185,
      "Ġreaching": 6186,
      "Ġalien": 6187,
      "irm": 6188,
      "Ġcopy": 6189,
      "ĠQuick": 6190,
      "Ġcheering": 6191,
      "Mummy": 6192,
      "ĠJeff": 6193,
      "Ġphotos": 6194,
      "Ġcans": 6195,
      "Ġbene": 6196,
      "Ġtimer": 6197,
      "Ġreplaced": 6198,
      "Ġworkers": 6199,
      "Ġstern": 6200,
      "ĠEnjoy": 6201,
      "Ġadult": 6202,
      "Bad": 6203,
      "Ġneither": 6204,
      "aster": 6205,
      "Ġpassing": 6206,
      "Ġmisses": 6207,
      "Ġpuppet": 6208,
      "Ġcurtains": 6209,
      "Ġconfl": 6210,
      "Ġrainbows": 6211,
      "Ġtwirl": 6212,
      "Ġrubs": 6213,
      "Ġrolls": 6214,
      "uctantly": 6215,
      "ĠLuke": 6216,
      "ĠJessie": 6217,
      "Ġpatted": 6218,
      "Ġconflict": 6219,
      "ilo": 6220,
      "Ġpajamas": 6221,
      "Ġoutdoors": 6222,
      "esome": 6223,
      "dies": 6224,
      "Ġcomplaining": 6225,
      "ĠDizzy": 6226,
      "Ġcloses": 6227,
      "Ġbeneath": 6228,
      "Ġlap": 6229,
      "Ġdrums": 6230,
      "Run": 6231,
      "Ġtune": 6232,
      "ĠSanta": 6233,
      "Ro": 6234,
      "Ġfilling": 6235,
      "ĠSorry": 6236,
      "angled": 6237,
      "Ġrefuse": 6238,
      "Ġsweat": 6239,
      "Ġfaced": 6240,
      "...": 6241,
      "Ġseven": 6242,
      "Ġbalanced": 6243,
      "Ġ1": 6244,
      "Ġrescued": 6245,
      "bl": 6246,
      "Ġquacked": 6247,
      "neath": 6248,
      "ĠDays": 6249,
      "ĠOur": 6250,
      "Ġawesome": 6251,
      "ĠYes": 6252,
      "Ġmission": 6253,
      "Ġguys": 6254,
      "Ġcautious": 6255,
      "Ġcause": 6256,
      "Ġvent": 6257,
      "Ġobserved": 6258,
      "Cat": 6259,
      "Ġintroduc": 6260,
      "Ġpastries": 6261,
      "nie": 6262,
      "Ġdoctors": 6263,
      "Ġexactly": 6264,
      "Ġrule": 6265,
      "ĠHenny": 6266,
      "Ġbecoming": 6267,
      "Ġmes": 6268,
      "Ġpoliceman": 6269,
      "lay": 6270,
      "Ġrockets": 6271,
      "uly": 6272,
      "you": 6273,
      "Ġfairies": 6274,
      "Ġpout": 6275,
      "ĠLinda": 6276,
      "ĠJac": 6277,
      "Ġinsist": 6278,
      "Ġblooming": 6279,
      "Ġtractor": 6280,
      "Ġfarther": 6281,
      "Tommy": 6282,
      "avi": 6283,
      "Oops": 6284,
      "Ġdesert": 6285,
      "Ġremembering": 6286,
      "Ġincluded": 6287,
      "Ġcurly": 6288,
      "Ġteamwork": 6289,
      "zie": 6290,
      "Great": 6291,
      "Ġfascinated": 6292,
      "Ġslam": 6293,
      "Ġwobbled": 6294,
      "Ġtruly": 6295,
      "Ġhelpers": 6296,
      "Fine": 6297,
      "Ġsights": 6298,
      "Ġpaddle": 6299,
      "Ġfirm": 6300,
      "Ġstumble": 6301,
      "Ġcaused": 6302,
      "Ġprayer": 6303,
      "ĠJenna": 6304,
      "Then": 6305,
      "Ġspong": 6306,
      "Ġrecording": 6307,
      "kelly": 6308,
      "eah": 6309,
      "Ġstarfish": 6310,
      "Ġtraded": 6311,
      "ĠSc": 6312,
      "Ġsupplies": 6313,
      "Ġthro": 6314,
      "Ġpointy": 6315,
      "Ġinviting": 6316,
      "Ġsituation": 6317,
      "gers": 6318,
      "Ġeveryday": 6319,
      "Ġneighbourhood": 6320,
      "Ġornaments": 6321,
      "ĠAnt": 6322,
      "ĠWhistle": 6323,
      "inkle": 6324,
      "Ġvalued": 6325,
      "Ġadding": 6326,
      "ais": 6327,
      "Ġreluctantly": 6328,
      "ĠRover": 6329,
      "Ġdots": 6330,
      "Ġstays": 6331,
      "Ġbare": 6332,
      "Ġtables": 6333,
      "Ġprettier": 6334,
      "ĠMix": 6335,
      "ĠSkelly": 6336,
      "ĠJon": 6337,
      "Ġsnowmen": 6338,
      "ĠJacob": 6339,
      "Ġsteady": 6340,
      "Ġminerals": 6341,
      "ĠGina": 6342,
      "araway": 6343,
      "ĠMilo": 6344,
      "Ġthorn": 6345,
      "ĠGet": 6346,
      "Ġast": 6347,
      "ĠWelcome": 6348,
      "Ġfaraway": 6349,
      "Ġglasses": 6350,
      "ĠDuck": 6351,
      "ĠPo": 6352,
      "ĠĠĊ": 6353,
      "Ġswooped": 6354,
      "ĠBetsy": 6355,
      "Ġunf": 6356,
      "Ġforks": 6357,
      "Ġusually": 6358,
      "Ġusual": 6359,
      "Ġdar": 6360,
      "Ġwinked": 6361,
      "Ġsneezing": 6362,
      "Ġsolut": 6363,
      "ĠDara": 6364,
      "Ġloading": 6365,
      "Ġsponge": 6366,
      "Ġinsects": 6367,
      "ĠDee": 6368,
      "ody": 6369,
      "Ġpans": 6370,
      "ĠStay": 6371,
      "Ġsobbed": 6372,
      "Ġgrowling": 6373,
      "sm": 6374,
      "Ġthroat": 6375,
      "Ġnoses": 6376,
      "ĠWant": 6377,
      "ĠKids": 6378,
      "Ġscarves": 6379,
      "Ġconfident": 6380,
      "Ġyourselves": 6381,
      "arter": 6382,
      "agull": 6383,
      "ĠSuzie": 6384,
      "Ġhomework": 6385,
      "Ġsuperheroes": 6386,
      "ĠAsh": 6387,
      "Ġsmarter": 6388,
      "Ġwindy": 6389,
      "Ġlibrarian": 6390,
      "Timmy": 6391,
      "Ġgems": 6392,
      "ĠFu": 6393,
      "ora": 6394,
      "Ġunderneath": 6395,
      "Ġkicks": 6396,
      "Ġknowled": 6397,
      "Ġitchy": 6398,
      "Ġjackets": 6399,
      "Ġknowledge": 6400,
      "ĠZiggy": 6401,
      "Ġsurface": 6402,
      "Ġuntie": 6403,
      "Ġcomm": 6404,
      "ĠQuack": 6405,
      "Ġprincesses": 6406,
      "Time": 6407,
      "...\"": 6408,
      "ido": 6409,
      "Yeah": 6410,
      "coon": 6411,
      "ĠPaws": 6412,
      "Ġsquares": 6413,
      "Ġgiggling": 6414,
      "Ġwarnings": 6415,
      "iar": 6416,
      "Those": 6417,
      "Ġreads": 6418,
      "vin": 6419,
      "Ġchoo": 6420,
      "Ġyounger": 6421,
      "ĠDodo": 6422,
      "Ġclowns": 6423,
      "son": 6424,
      "Ġropes": 6425,
      "ĠWink": 6426,
      "Our": 6427,
      "ĠSadly": 6428,
      "Hold": 6429,
      "Ġbiting": 6430,
      "Le": 6431,
      "Ġcrowd": 6432,
      "pite": 6433,
      "Ġseagull": 6434,
      "Ġpaddled": 6435,
      "Ġwears": 6436,
      "Ġdelivered": 6437,
      "Ġonions": 6438,
      "Ġbuzzed": 6439,
      "Ġcomplained": 6440,
      "eed": 6441,
      "Ġbumpy": 6442,
      "Ġstem": 6443,
      "Ew": 6444,
      "Ġpiggy": 6445,
      "ĠSkip": 6446,
      "ĠJones": 6447,
      "Ġdirection": 6448,
      "ouch": 6449,
      "Ġdived": 6450,
      "Ġstartled": 6451,
      "Ġtangled": 6452,
      "Ġleaning": 6453,
      "bbie": 6454,
      "pr": 6455,
      "Roar": 6456,
      "ĠFido": 6457,
      "Ġbadge": 6458,
      "ĠYesterday": 6459,
      "ĠNana": 6460,
      "ĠJessica": 6461,
      "Fo": 6462,
      "Ġdeal": 6463,
      "Ġunp": 6464,
      "though": 6465,
      "ĠBuggy": 6466,
      "Ġvowed": 6467,
      "Ġnapkins": 6468,
      "anes": 6469,
      "Ġrisk": 6470,
      "Ġtickled": 6471,
      "Ġcovers": 6472,
      "Ġpec": 6473,
      "Shh": 6474,
      "ĠCara": 6475,
      "Ġyells": 6476,
      "Ġsatisfied": 6477,
      "ĠNear": 6478,
      "Ġknocks": 6479,
      "Ġrefreshed": 6480,
      "tuce": 6481,
      "cuse": 6482,
      "Ġcous": 6483,
      "ĠCathy": 6484,
      "Ġarrows": 6485,
      "Ġwipes": 6486,
      "Ġspeaking": 6487,
      "Ġlettuce": 6488,
      "Ġguessing": 6489,
      "ĠCindy": 6490,
      "Ġripe": 6491,
      "Ġhides": 6492,
      "Ġchoices": 6493,
      "ĠLion": 6494,
      "Ġsigned": 6495,
      "Ġslower": 6496,
      "Ġseeker": 6497,
      "Ġintroduced": 6498,
      "irl": 6499,
      "ĠKayla": 6500,
      "Ġsinger": 6501,
      "Ġcreating": 6502,
      "ĠTara": 6503,
      "Ġcent": 6504,
      "Ġfroze": 6505,
      "uggles": 6506,
      "Ġjoked": 6507,
      "Ġsqueal": 6508,
      "Ġexplorers": 6509,
      "Ġtoaster": 6510,
      "ĠJulia": 6511,
      "ĠMel": 6512,
      "Ġavo": 6513,
      "anging": 6514,
      "Ġpraying": 6515,
      "Ġwritten": 6516,
      "Ġdiscovering": 6517,
      "Ġprovided": 6518,
      "Ġrefle": 6519,
      "Excuse": 6520,
      "Jack": 6521,
      "Ġmushrooms": 6522,
      "Ġknees": 6523,
      "Ġpaying": 6524,
      "fit": 6525,
      "Ġhider": 6526,
      "ences": 6527,
      "Ġwandering": 6528,
      "ĠRolly": 6529,
      "Ġimages": 6530,
      "Ġstung": 6531,
      "Ġmagnets": 6532,
      "Ġbarely": 6533,
      "Ġbehaving": 6534,
      "Ġtipto": 6535,
      "?\",": 6536,
      "Ġmarked": 6537,
      "ĠSnuggles": 6538,
      "brush": 6539,
      "Dog": 6540,
      "ĠGrumpy": 6541,
      "Ġrestored": 6542,
      "Ġleading": 6543,
      "lled": 6544,
      "Ġchuck": 6545,
      "ĠOliver": 6546,
      "Ġnine": 6547,
      "ados": 6548,
      "Ġgreet": 6549,
      "Ġbravery": 6550,
      "Ġgears": 6551,
      "Ġcompetition": 6552,
      "Ġoutfit": 6553,
      "oline": 6554,
      "Ġwishing": 6555,
      "Ġproperly": 6556,
      "Ġventured": 6557,
      "aa": 6558,
      "tle": 6559,
      "Ġchat": 6560,
      "Ġdances": 6561,
      "Ġmuscle": 6562,
      "Ġpens": 6563,
      "Ġsalty": 6564,
      "amb": 6565,
      "ĠMikey": 6566,
      "Ġranger": 6567,
      "Ġdeserve": 6568,
      "Ġhowever": 6569,
      "rrr": 6570,
      "sequ": 6571,
      "Ġmatters": 6572,
      "Ġdarkness": 6573,
      "Ġburst": 6574,
      "Ġrainy": 6575,
      "Ġcobwebs": 6576,
      "Ġruining": 6577,
      "Ġchefs": 6578,
      "Ġbak": 6579,
      "Ġconsequ": 6580,
      "Ġblocking": 6581,
      "usted": 6582,
      "itely": 6583,
      "Ġscur": 6584,
      "Ġvines": 6585,
      "ĠCopper": 6586,
      "Ġfab": 6587,
      "abel": 6588,
      "Ġfabric": 6589,
      "Ġentire": 6590,
      "Ġbasement": 6591,
      "Ġleast": 6592,
      "Ġperformed": 6593,
      "ĠLaser": 6594,
      "Ġscratches": 6595,
      "Ġheavier": 6596,
      "Cl": 6597,
      "Ġmints": 6598,
      "Ġavocados": 6599,
      "Ġtwirling": 6600,
      "fl": 6601,
      "rink": 6602,
      "ĠJay": 6603,
      "Ġlosing": 6604,
      "Ġscurried": 6605,
      "Ġsunflowers": 6606,
      "Ġrainco": 6607,
      "Ġswords": 6608,
      "Ġclick": 6609,
      "ĠNothing": 6610,
      "Ġjobs": 6611,
      "Ġsilent": 6612,
      "Grandma": 6613,
      "Ġflames": 6614,
      "Ġnecklaces": 6615,
      "Ġrelief": 6616,
      "ĠSnap": 6617,
      "Ġsnat": 6618,
      "Ġrotting": 6619,
      "Ġsewed": 6620,
      "Ġtricky": 6621,
      "Ġlighter": 6622,
      "ĠWithout": 6623,
      "Listen": 6624,
      "Ġbows": 6625,
      "Ġexha": 6626,
      "ĠPup": 6627,
      "Ġsolution": 6628,
      "Ġconsequences": 6629,
      "len": 6630,
      "Follow": 6631,
      "ho": 6632,
      "Ġstain": 6633,
      "Ġtires": 6634,
      "Ġunpacked": 6635,
      "rance": 6636,
      "ĠEx": 6637,
      "ĠLarry": 6638,
      "Ġpartic": 6639,
      "Ġraces": 6640,
      "Ġpins": 6641,
      "Ġbumps": 6642,
      "Ġwraps": 6643,
      "ĠSophia": 6644,
      "Ġwow": 6645,
      "Ġbacked": 6646,
      "Ġdecorating": 6647,
      "aisies": 6648,
      "cher": 6649,
      "Ġdentist": 6650,
      "Ġneedles": 6651,
      "Ġpurr": 6652,
      "Ġcautiously": 6653,
      "Ġlifting": 6654,
      "ĠTree": 6655,
      "izzie": 6656,
      "ĠThose": 6657,
      "Ġaccomplish": 6658,
      "Ġdaisies": 6659,
      "Ġtriangles": 6660,
      "ept": 6661,
      "Ġhesitated": 6662,
      "Ġannoy": 6663,
      "Ġgrowls": 6664,
      "ĠTwinkle": 6665,
      "Ġcrackers": 6666,
      "ĠBark": 6667,
      "Ġstomped": 6668,
      "Ġcott": 6669,
      "Ġgrabbing": 6670,
      "Ġbodies": 6671,
      "Ġfigured": 6672,
      "Ġmater": 6673,
      "Ġbuying": 6674,
      "Ġmaterial": 6675,
      "oke": 6676,
      "ĠPam": 6677,
      "Ġswans": 6678,
      "Ġties": 6679,
      "Ġgri": 6680,
      "vers": 6681,
      "Ġgrows": 6682,
      "ĠBloom": 6683,
      "ĠGoodbye": 6684,
      "Ġsweets": 6685,
      "Ġowners": 6686,
      "Ġcheeks": 6687,
      "Ġflavor": 6688,
      "ĠLizzie": 6689,
      "Ġsuffering": 6690,
      "vroom": 6691,
      "Ġfact": 6692,
      "Ġgroups": 6693,
      "bly": 6694,
      "Ġforehead": 6695,
      "Ġlungs": 6696,
      "Ġrepa": 6697,
      "ĠTrust": 6698,
      "Ġinterested": 6699,
      "Ġbakery": 6700,
      "ĠRain": 6701,
      "Ġfreed": 6702,
      "itches": 6703,
      "ĠBall": 6704,
      "Ġchuckled": 6705,
      "Ġswept": 6706,
      "Ġconn": 6707,
      "?'": 6708,
      "Ġthud": 6709,
      "Ġexhausted": 6710,
      "Ġtapped": 6711,
      "Ġtwinkling": 6712,
      "Ġnect": 6713,
      "Ġnectar": 6714,
      "ĠQ": 6715,
      "elle": 6716,
      "Ġfeast": 6717,
      "ĠChrist": 6718,
      "Ġdarling": 6719,
      "ĠTry": 6720,
      "indr": 6721,
      "Ġworries": 6722,
      "Ġuns": 6723,
      "Ġtunnels": 6724,
      "Ġfuzzy": 6725,
      "Ġreason": 6726,
      "ĠPeanut": 6727,
      "Ġrepaired": 6728,
      "ĠJune": 6729,
      "ĠUp": 6730,
      "Ġactivities": 6731,
      "ĠListen": 6732,
      "Ġpecked": 6733,
      "Ġentrance": 6734,
      "Ġmeals": 6735,
      "Ġraindr": 6736,
      "ĠEls": 6737,
      "Ġcompletely": 6738,
      "Ġparticular": 6739,
      "Ġmailed": 6740,
      "ĠFrost": 6741,
      "ctions": 6742,
      "Ġnests": 6743,
      "Ġwaiter": 6744,
      "Ġcuddly": 6745,
      "Ġsense": 6746,
      "Ġcolored": 6747,
      "Ġleap": 6748,
      "band": 6749,
      "Ġplenty": 6750,
      "step": 6751,
      "Ġpeeking": 6752,
      "no": 6753,
      "Ġslammed": 6754,
      "ĠBirthday": 6755,
      "Ġplayers": 6756,
      "Ġbudge": 6757,
      "Ġmonth": 6758,
      "Ġscra": 6759,
      "Ġforgets": 6760,
      "Ġden": 6761,
      "ĠFrosty": 6762,
      "Ġhandful": 6763,
      "ĠRobert": 6764,
      "Ġmer": 6765,
      "ĠRollie": 6766,
      "Ġgenie": 6767,
      "Ġstool": 6768,
      "iggie": 6769,
      "Ġtalks": 6770,
      "ossible": 6771,
      "Ġfeeding": 6772,
      "Ġpassports": 6773,
      "Ġfilms": 6774,
      "Ġbaths": 6775,
      "Ġimpossible": 6776,
      "ĠStella": 6777,
      "ĠNick": 6778,
      "Ġdetermination": 6779,
      "ĠâĢĺ": 6780,
      "Ġprinting": 6781,
      "boat": 6782,
      "Ġdesigned": 6783,
      "ĠOther": 6784,
      "Ġbuses": 6785,
      "Ġopp": 6786,
      "lephant": 6787,
      "ueen": 6788,
      "Ġbars": 6789,
      "Ġsuitcase": 6790,
      "Ġnibb": 6791,
      "Ġcounts": 6792,
      "Ġstolen": 6793,
      "Ġspreading": 6794,
      "Ġspikes": 6795,
      "Lila": 6796,
      "Ġsteer": 6797,
      "Ġwiping": 6798,
      "Ġlamb": 6799,
      "Ġhonked": 6800,
      "nies": 6801,
      "Ġcowb": 6802,
      "ky": 6803,
      "Ġseparated": 6804,
      "blings": 6805,
      "Ġsiblings": 6806,
      "Ġhops": 6807,
      "Whee": 6808,
      "ĠLau": 6809,
      "Ġchop": 6810,
      "Ġfires": 6811,
      "Ġsewing": 6812,
      "Ġfever": 6813,
      "Ġtwinkle": 6814,
      "Ġty": 6815,
      "Ġcamping": 6816,
      "Ġlower": 6817,
      "Ġchanging": 6818,
      "yes": 6819,
      "retch": 6820,
      "Ġbehavi": 6821,
      "ĠMissy": 6822,
      "Rex": 6823,
      "mas": 6824,
      "Ġliqu": 6825,
      "Ġcelebration": 6826,
      "Ġdollhouse": 6827,
      "Ġsquealed": 6828,
      "Ġbackward": 6829,
      "Ġage": 6830,
      "ĠMaya": 6831,
      "but": 6832,
      "Ġsnatched": 6833,
      "ĠBiggie": 6834,
      "ĠAbbie": 6835,
      "Ġcash": 6836,
      "Bobo": 6837,
      "Ġtwice": 6838,
      "ĠMic": 6839,
      "Ġsway": 6840,
      "lee": 6841,
      "itched": 6842,
      "uzz": 6843,
      "Ġcelebrating": 6844,
      "Ġache": 6845,
      "Ġshrinking": 6846,
      "Ġkings": 6847,
      "weed": 6848,
      "ĠHold": 6849,
      "rious": 6850,
      "Ġshops": 6851,
      "Ġkittens": 6852,
      "ĠRobbie": 6853,
      "cope": 6854,
      "Ġhus": 6855,
      "cky": 6856,
      "Ġtouches": 6857,
      "ĠLia": 6858,
      "airy": 6859,
      "Ġpancakes": 6860,
      "Ġavoid": 6861,
      "Ġspat": 6862,
      "hog": 6863,
      "rig": 6864,
      "ĠWoof": 6865,
      "Ġpaths": 6866,
      "hile": 6867,
      "ives": 6868,
      "Ġrotten": 6869,
      "Ġcalmed": 6870,
      "Ġdropping": 6871,
      "Ġseaweed": 6872,
      "iles": 6873,
      "Ġtwisting": 6874,
      "Ġstroked": 6875,
      "Ġuntied": 6876,
      "llen": 6877,
      "Ġplayhouse": 6878,
      "Ġstudents": 6879,
      "Ġpuppies": 6880,
      "cl": 6881,
      "hi": 6882,
      "ĠIzzy": 6883,
      "ĠRy": 6884,
      "Ġscrews": 6885,
      "Ġastron": 6886,
      "Ġsomebody": 6887,
      "ĠChris": 6888,
      "igning": 6889,
      "Ġliquid": 6890,
      "Ġsquish": 6891,
      "Ġwakes": 6892,
      "ĠLaura": 6893,
      "ĠRobo": 6894,
      "Ġbracelets": 6895,
      "Ġastronaut": 6896,
      "immer": 6897,
      "aren": 6898,
      "Ġthrown": 6899,
      "Ġloops": 6900,
      "Ġwrapping": 6901,
      "Ġplain": 6902,
      "Ġtramp": 6903,
      "Ġplanning": 6904,
      "Ġaimed": 6905,
      "Ġskunk": 6906,
      "Ġpennies": 6907,
      "ĠFuzzy": 6908,
      "Ġshoo": 6909,
      "Ġdancers": 6910,
      "Ġlifts": 6911,
      "Ġsparks": 6912,
      "Ġfirefly": 6913,
      "pen": 6914,
      "ĠChristmas": 6915,
      "Ġposter": 6916,
      "Ġcust": 6917,
      "endy": 6918,
      "Ġrewarded": 6919,
      "Ġobjects": 6920,
      "Ġdirections": 6921,
      "ingo": 6922,
      "using": 6923,
      "Ġreflection": 6924,
      "Ġhusband": 6925,
      "âĢĶ": 6926,
      "river": 6927,
      "ĠDoctor": 6928,
      "Take": 6929,
      "ĠRich": 6930,
      "ĠQueen": 6931,
      "Ġclues": 6932,
      "uppy": 6933,
      "ĠWoo": 6934,
      "ĠSparky": 6935,
      "Ġleads": 6936,
      "Ġincreased": 6937,
      "Ġblocked": 6938,
      "Ġrising": 6939,
      "Ġdod": 6940,
      "Ġcousin": 6941,
      "ĠElephant": 6942,
      "Ġforgetting": 6943,
      "rigued": 6944,
      "Ġcustom": 6945,
      "ĠRudy": 6946,
      "Ġbeginning": 6947,
      "Ġtrampoline": 6948,
      "Ġstorekeeper": 6949,
      "Ġpouted": 6950,
      "artha": 6951,
      "Ġzebras": 6952,
      "Ġaff": 6953,
      "Ġhedgehog": 6954,
      "ĠRyan": 6955,
      "ĠAng": 6956,
      "Ġborrowed": 6957,
      "ĠKaren": 6958,
      "Ġsnowfl": 6959,
      "Ġcountryside": 6960,
      "ude": 6961,
      "Ġmesmer": 6962,
      "Ġvehicles": 6963,
      "ĠOnly": 6964,
      "Ġinstrum": 6965,
      "ĠMoon": 6966,
      "Ġfrowning": 6967,
      "Some": 6968,
      "ivity": 6969,
      "Buddy": 6970,
      "Ġmarker": 6971,
      "yond": 6972,
      "Ġbeyond": 6973,
      "ĠFire": 6974,
      "Ġpresses": 6975,
      "Ġfart": 6976,
      "Ġdamage": 6977,
      "ivery": 6978,
      "ammy": 6979,
      "ĠAlong": 6980,
      "iece": 6981,
      "ĠFarm": 6982,
      "jo": 6983,
      "Beep": 6984,
      "Ġhealth": 6985,
      "Ġwhispers": 6986,
      "Ġslips": 6987,
      "Ġswimsuit": 6988,
      "Ġflapping": 6989,
      "Ġwarmer": 6990,
      "ĠEmmy": 6991,
      "ĠMartha": 6992,
      "Ġtiptoed": 6993,
      "Ġregretted": 6994,
      "ĠSim": 6995,
      "itted": 6996,
      "Ġlaying": 6997,
      "Ġyelp": 6998,
      "ades": 6999,
      "Ġeverybody": 7000,
      "Ġglued": 7001,
      "Ġrains": 7002,
      "ĠStretch": 7003,
      "ĠMabel": 7004,
      "Ġcreations": 7005,
      "Ġhearing": 7006,
      "Ġcolder": 7007,
      "iversity": 7008,
      "ael": 7009,
      "nk": 7010,
      "Ġshaped": 7011,
      "Ġfins": 7012,
      "Ġstreets": 7013,
      "Ġcushions": 7014,
      "Ġrusty": 7015,
      "ĠSw": 7016,
      "Ġfarthest": 7017,
      "Ġcreativity": 7018,
      "ĠMa": 7019,
      "Ġsale": 7020,
      "ans": 7021,
      "ĠToot": 7022,
      "iam": 7023,
      "Ġstrongest": 7024,
      "Ġfits": 7025,
      "ibbit": 7026,
      "Ġbells": 7027,
      "Ġdollars": 7028,
      "Ġearn": 7029,
      "ĠRon": 7030,
      "angle": 7031,
      "Ġlending": 7032,
      "ĠBeaky": 7033,
      "eese": 7034,
      "Ġcashier": 7035,
      "Ġincluding": 7036,
      "Ġsank": 7037,
      "Ġsniffs": 7038,
      "Ġraincoat": 7039,
      "Ġstopping": 7040,
      "Ġtrembled": 7041,
      "Always": 7042,
      "Ġsource": 7043,
      "iti": 7044,
      "Ġindeed": 7045,
      "Ġwobbly": 7046,
      "ters": 7047,
      "ĠFarmer": 7048,
      "Ġguests": 7049,
      "Ġsingle": 7050,
      "Ġrecommended": 7051,
      "ĠGranny": 7052,
      "Ġspells": 7053,
      "ĠTia": 7054,
      "Ġaccomplishment": 7055,
      "Ġbelts": 7056,
      "Ġsurprising": 7057,
      "Ġends": 7058,
      "ĠAfterwards": 7059,
      "ĠSnowman": 7060,
      "Ġhopeful": 7061,
      "ĠTake": 7062,
      "eal": 7063,
      "Ġseasons": 7064,
      "Ġplans": 7065,
      "Jump": 7066,
      "ichael": 7067,
      "Ġencourag": 7068,
      "Ġsupported": 7069,
      "stick": 7070,
      "Ġsuffered": 7071,
      "Ġartist": 7072,
      "illed": 7073,
      "Ġperformance": 7074,
      "eet": 7075,
      "Ġslowed": 7076,
      "Ġgross": 7077,
      "Ġflavors": 7078,
      "iding": 7079,
      "Ġspins": 7080,
      "ertain": 7081,
      "cho": 7082,
      "Ġlabels": 7083,
      "ĠSimon": 7084,
      "Ġdelivery": 7085,
      "Ġraindrops": 7086,
      "uing": 7087,
      "arac": 7088,
      "Ġraccoon": 7089,
      "Ġforgiving": 7090,
      "obody": 7091,
      "Ġpours": 7092,
      "ility": 7093,
      "Ġstands": 7094,
      "Ġturtles": 7095,
      "Ġvanilla": 7096,
      "ĠBones": 7097,
      "ĠMichael": 7098,
      "uess": 7099,
      "Ġbeam": 7100,
      "Ġrecipe": 7101,
      "Ġtying": 7102,
      "ĠSpirit": 7103,
      "Ġgeese": 7104,
      "Ġwilling": 7105,
      "Ġdrawn": 7106,
      "Ġrobber": 7107,
      "Ġwept": 7108,
      "Ġcharac": 7109,
      "ĠKit": 7110,
      "Ġcorners": 7111,
      "Ġpops": 7112,
      "ĠHolly": 7113,
      "elia": 7114,
      "Ġqueens": 7115,
      "Ġdie": 7116,
      "Ġsailboat": 7117,
      "ĠBarky": 7118,
      "Ġgrip": 7119,
      "Ġdrivers": 7120,
      "itude": 7121,
      "Ġmoo": 7122,
      "Ġimagining": 7123,
      "Ġhallway": 7124,
      "Ġseconds": 7125,
      "Vroom": 7126,
      "ĠAna": 7127,
      "ĠJump": 7128,
      "Ġpreparing": 7129,
      "Ġwidened": 7130,
      "Mine": 7131,
      "Ġcoop": 7132,
      "Ġgrocer": 7133,
      "ĠPatch": 7134,
      "Ġtalented": 7135,
      "ĠJanie": 7136,
      "Ġsailors": 7137,
      "ummies": 7138,
      "ĠTiti": 7139,
      "Tr": 7140,
      "lling": 7141,
      "Ġaside": 7142,
      "Ġsofter": 7143,
      "Ġwatering": 7144,
      "Ġknots": 7145,
      "Ġsending": 7146,
      "Ġtipped": 7147,
      "Ġunsure": 7148,
      "Ġtreehouse": 7149,
      "Ġhoriz": 7150,
      "ĠPh": 7151,
      "Ġnotes": 7152,
      "Ġecho": 7153,
      "igers": 7154,
      "Ġachieved": 7155,
      "ĠExc": 7156,
      "ĠCrab": 7157,
      "Ġhorizon": 7158,
      "Ġsqueak": 7159,
      "Ġdelivering": 7160,
      "ĠPlay": 7161,
      "Ġhotter": 7162,
      "Ġpleasure": 7163,
      "ĠZee": 7164,
      "Ġpupils": 7165,
      "Ġburrow": 7166,
      "Ġangels": 7167,
      "Ġcuriously": 7168,
      "Ġyum": 7169,
      "Ġblinking": 7170,
      "Ġdet": 7171,
      "Ġtweet": 7172,
      "Ġsymbols": 7173,
      "wk": 7174,
      "Ġpassen": 7175,
      "Ġtummies": 7176,
      "Ġtiss": 7177,
      "Ġpigeons": 7178,
      "Ġfigures": 7179,
      "umbling": 7180,
      "Ġbandages": 7181,
      "ĠTurt": 7182,
      "Ġcoup": 7183,
      "oey": 7184,
      "ĠSl": 7185,
      "Ġrobots": 7186,
      "Ġtossed": 7187,
      "Ġhour": 7188,
      "Ġbackwards": 7189,
      "Ġroars": 7190,
      "alph": 7191,
      "Ġmerma": 7192,
      "Ġrather": 7193,
      "atur": 7194,
      "ĠTess": 7195,
      "ighting": 7196,
      "Ġgroceries": 7197,
      "Ġzipping": 7198,
      "ĠZoey": 7199,
      "Ġunw": 7200,
      "ĠExcited": 7201,
      "Ġamong": 7202,
      "Ġicing": 7203,
      "Ġblown": 7204,
      "Put": 7205,
      "ĠThanks": 7206,
      "Ġrumble": 7207,
      "Ġafterwards": 7208,
      "!âĢĿ.": 7209,
      "ipper": 7210,
      "Ġscrewd": 7211,
      "Ġglee": 7212,
      "Ġsped": 7213,
      "Ġprove": 7214,
      "ushing": 7215,
      "Ġdip": 7216,
      "Ġovercome": 7217,
      "Ġsurfboard": 7218,
      "Quack": 7219,
      "print": 7220,
      "Ġshovels": 7221,
      "Ġslices": 7222,
      "ĠJackie": 7223,
      "Ġmerry": 7224,
      "Ġmate": 7225,
      "ĠRalph": 7226,
      "Ġwobble": 7227,
      "ĠWendy": 7228,
      "Ġheading": 7229,
      "Ġdisturbing": 7230,
      "ĠAbi": 7231,
      "ĠWo": 7232,
      "Ġswall": 7233,
      "Ġreversed": 7234,
      "Ġfirefighters": 7235,
      "Ġswallowed": 7236,
      "Ġchip": 7237,
      "Ġscored": 7238,
      "Ġflipped": 7239,
      "eds": 7240,
      "Ġsqueezing": 7241,
      "Ġwaking": 7242,
      "Ġintrigued": 7243,
      "ĠMarie": 7244,
      "Ġmaker": 7245,
      "Ġpuff": 7246,
      "awn": 7247,
      "Ġhawk": 7248,
      "usty": 7249,
      "Ġencouraging": 7250,
      "Ġaud": 7251,
      "ĠLenny": 7252,
      "Very": 7253,
      "onies": 7254,
      "ĠWilly": 7255,
      "Ġchos": 7256,
      "Ġchosen": 7257,
      "ĠDavey": 7258,
      "Ġcouple": 7259,
      "the": 7260,
      "Ġdesigns": 7261,
      "ĠDes": 7262,
      "Ġslipping": 7263,
      "Ġscrewdriver": 7264,
      "Ġsquishy": 7265,
      "Like": 7266,
      "Ġgardener": 7267,
      "Ġcenter": 7268,
      "Ġrivers": 7269,
      "Ġmarkers": 7270,
      "Ġrespond": 7271,
      "Ġtigers": 7272,
      "iley": 7273,
      "Ġjars": 7274,
      "pecting": 7275,
      "Ġfrowns": 7276,
      "bird": 7277,
      "Ġfluttered": 7278,
      "Ġfirefighter": 7279,
      "Ġsecure": 7280,
      "Ġsuits": 7281,
      "Ġsprinkled": 7282,
      "Ġcreamy": 7283,
      "Ġbru": 7284,
      "ashes": 7285,
      "Ġsharks": 7286,
      "Ġignoring": 7287,
      "Ġgiggles": 7288,
      "ĠSleep": 7289,
      "ĠTweetie": 7290,
      "Ribbit": 7291,
      "Ġtighter": 7292,
      "Ġtissue": 7293,
      "Ġfirmly": 7294,
      "Bl": 7295,
      "ĠNobody": 7296,
      "ĠJacky": 7297,
      "Ġshown": 7298,
      "ĠRoo": 7299,
      "Ġfamiliar": 7300,
      "fly": 7301,
      "Ġthorns": 7302,
      "ĠTime": 7303,
      "Ġdrawers": 7304,
      "child": 7305,
      "Ġdef": 7306,
      "Ġexpress": 7307,
      "ĠJudy": 7308,
      "Ġdaring": 7309,
      "ments": 7310,
      "Ġcrossing": 7311,
      "Ġaudience": 7312,
      "ĠSince": 7313,
      "Ġcloudy": 7314,
      "Ġperforming": 7315,
      "Ġcoloured": 7316,
      "Ġcor": 7317,
      "Ġais": 7318,
      "ĠTurtle": 7319,
      "rat": 7320,
      "Ġpedaled": 7321,
      "Ġmixture": 7322,
      "Fr": 7323,
      "Ġgracefully": 7324,
      "ggy": 7325,
      "Ġ2": 7326,
      "Ġhaircuts": 7327,
      "Ġyielded": 7328,
      "Ġponies": 7329,
      "Ġdisob": 7330,
      "Ġcrowns": 7331,
      "Ġbits": 7332,
      "Fin": 7333,
      "Get": 7334,
      "Ġtodd": 7335,
      "Ġhangers": 7336,
      "Ġnervously": 7337,
      "bbled": 7338,
      "ĠChewy": 7339,
      "ĠKip": 7340,
      "ĠTodd": 7341,
      "Ġpays": 7342,
      "Ġpeck": 7343,
      "Ġev": 7344,
      "Ġstroke": 7345,
      "fall": 7346,
      "Ġnapped": 7347,
      "Ġrespected": 7348,
      "aven": 7349,
      "Ġminded": 7350,
      "ĠWise": 7351,
      "ĠMomma": 7352,
      "ddie": 7353,
      "ably": 7354,
      "ĠAli": 7355,
      "Ġtested": 7356,
      "Boys": 7357,
      "ading": 7358,
      "parent": 7359,
      "ĠMaddie": 7360,
      "arrow": 7361,
      "ĠUniversity": 7362,
      "Ġbeeh": 7363,
      "Ġneighbours": 7364,
      "Ġsurfing": 7365,
      "ĠBally": 7366,
      "First": 7367,
      "vered": 7368,
      "Ġshady": 7369,
      "ĠYet": 7370,
      "Ġdarl": 7371,
      "iona": 7372,
      "Ġmagician": 7373,
      "Ġenthusiasm": 7374,
      "Ġdarlings": 7375,
      "Ġwisely": 7376,
      "Ġstitches": 7377,
      "ĠJojo": 7378,
      "Ġsails": 7379,
      "ĠYog": 7380,
      "Ġthoughts": 7381,
      "Ġweekend": 7382,
      "Ġreminds": 7383,
      "fted": 7384,
      "ĠMina": 7385,
      "Ġtemper": 7386,
      "oring": 7387,
      "ilted": 7388,
      "antha": 7389,
      "Ġfleas": 7390,
      "Ġsurroundings": 7391,
      "Ġspits": 7392,
      "Ġteams": 7393,
      "Ġfills": 7394,
      "Ġlessons": 7395,
      "een": 7396,
      "Ġflip": 7397,
      "Dear": 7398,
      "Ġpaintbrush": 7399,
      "Ġmelons": 7400,
      "ĠPuppy": 7401,
      "Ġmermaid": 7402,
      "Bang": 7403,
      "ĠAlthough": 7404,
      "ĠOutside": 7405,
      "ĠWin": 7406,
      "Ġgrandchild": 7407,
      "Ġexplo": 7408,
      "Ġelbow": 7409,
      "Ġhoops": 7410,
      "ĠSoft": 7411,
      "ĠCu": 7412,
      "Ġsports": 7413,
      "Ġlies": 7414,
      "ĠFighting": 7415,
      "rac": 7416,
      "ĠFiona": 7417,
      "Ġpanicked": 7418,
      "Ġamount": 7419,
      "Ġcleaner": 7420,
      "cused": 7421,
      "Ġlongest": 7422,
      "ĠSamantha": 7423,
      "Ġscooters": 7424,
      "Ġlent": 7425,
      "ĠSadie": 7426,
      "Ġsill": 7427,
      "ita": 7428,
      "Ġbeloved": 7429,
      "immering": 7430,
      "Ġbeehive": 7431,
      "Alright": 7432,
      "lle": 7433,
      "ongrat": 7434,
      "oni": 7435,
      "Ġoysters": 7436,
      "Ġgrandparent": 7437,
      "ĠMixy": 7438,
      "ongratul": 7439,
      "Guess": 7440,
      "ĠMother": 7441,
      "Ġforgiven": 7442,
      "Ġmagazines": 7443,
      "ĠSparkle": 7444,
      "Ġarr": 7445,
      "Ġelf": 7446,
      "ces": 7447,
      "Ġrepeating": 7448,
      "Ġdiscussed": 7449,
      "ĠDani": 7450,
      "Ġsweetest": 7451,
      "Ġwadd": 7452,
      "ĠEverybody": 7453,
      "Ġreass": 7454,
      "Keep": 7455,
      "Ġnightmares": 7456,
      "Ġtubes": 7457,
      "Ġunderstands": 7458,
      "Ġspoonful": 7459,
      "Ġnood": 7460,
      "ĠPen": 7461,
      "Ġbathing": 7462,
      "asty": 7463,
      "Ġmanners": 7464,
      "Ġsweep": 7465,
      "crow": 7466,
      "Ġbully": 7467,
      "Ġnur": 7468,
      "Ġwrink": 7469,
      "Ġsprang": 7470,
      "Ġguide": 7471,
      "Ġcrew": 7472,
      "ĠMint": 7473,
      "ĠAmelia": 7474,
      "omise": 7475,
      "onna": 7476,
      "Ġbreathed": 7477,
      "ently": 7478,
      "ilda": 7479,
      "steps": 7480,
      "while": 7481,
      "ĠWell": 7482,
      "ĠKe": 7483,
      "Ġbulbs": 7484,
      "Ġcoug": 7485,
      "Ġneare": 7486,
      "Ġgrassy": 7487,
      "Ġspies": 7488,
      "Ġtesting": 7489,
      "Ġwiggly": 7490,
      "ĠEddie": 7491,
      "Ġsolving": 7492,
      "Ġsheets": 7493,
      "Ġfootsteps": 7494,
      "ĠStart": 7495,
      "immy": 7496,
      "ntil": 7497,
      "Ġspeeding": 7498,
      "Doggy": 7499,
      "hew": 7500,
      "Ġfocused": 7501,
      "cept": 7502,
      "ounced": 7503,
      "?!\"": 7504,
      "ĠHerb": 7505,
      "Ġbraver": 7506,
      "Ġcamel": 7507,
      "Ġmesmerized": 7508,
      "Ġhesitant": 7509,
      "Ġlicking": 7510,
      "Ġrushing": 7511,
      "ĠAngel": 7512,
      "Moo": 7513,
      "Ġjoining": 7514,
      "Ġpolar": 7515,
      "Ġgreeted": 7516,
      "Ġworn": 7517,
      "Ġchanges": 7518,
      "ĠUntil": 7519,
      "Ġmaterials": 7520,
      "undred": 7521,
      "ĠDespite": 7522,
      "ĠBess": 7523,
      "Ġstored": 7524,
      "Which": 7525,
      "Ġbicycles": 7526,
      "Ġmast": 7527,
      "ĠBack": 7528,
      "Ġanger": 7529,
      "Ġpeacefully": 7530,
      "Leave": 7531,
      "Ġships": 7532,
      "ĠShow": 7533,
      "Tweet": 7534,
      "Ġspice": 7535,
      "Ġnuzz": 7536,
      "Ġgonna": 7537,
      "Ġterrified": 7538,
      "ĠCow": 7539,
      "Ġpolitely": 7540,
      "Ġscarecrow": 7541,
      "Ġspills": 7542,
      "ĠMean": 7543,
      "Ġknives": 7544,
      "ĠMeg": 7545,
      "Ġevil": 7546,
      "ppies": 7547,
      "Ġburying": 7548,
      "Billy": 7549,
      "ca": 7550,
      "On": 7551,
      "Ġaren": 7552,
      "Ġhealing": 7553,
      "Ġdonkey": 7554,
      "Ġaeroplanes": 7555,
      "freeze": 7556,
      "Ġmiles": 7557,
      "Ġseals": 7558,
      "agic": 7559,
      "Ġscattering": 7560,
      "Ġdump": 7561,
      "amboo": 7562,
      "ĠNice": 7563,
      "Ġworrying": 7564,
      "Mimi": 7565,
      "ĠGary": 7566,
      "zoom": 7567,
      "beep": 7568,
      "--": 7569,
      "Ġpuzzled": 7570,
      "Ġstacked": 7571,
      "ĠRuth": 7572,
      "Ġloses": 7573,
      "dding": 7574,
      "Ġbaskets": 7575,
      "Ġtravelled": 7576,
      "ĠOkay": 7577,
      "Ġblast": 7578,
      "Ġgazing": 7579,
      "ĠChess": 7580,
      "erm": 7581,
      "ĠFairy": 7582,
      "ipes": 7583,
      "Ġtemperature": 7584,
      "Ġund": 7585,
      "Ġclue": 7586,
      "Ġtasting": 7587,
      "Ġdripping": 7588,
      "Ġbelieving": 7589,
      "Ġ10": 7590,
      "Ġpinching": 7591,
      "Ġsoaking": 7592,
      "Ġrats": 7593,
      "Hurry": 7594,
      "isc": 7595,
      "ĠPoor": 7596,
      "Ġsandy": 7597,
      "ĠIsn": 7598,
      "rect": 7599,
      "ĠMindy": 7600,
      "rey": 7601,
      "ĠMeanwhile": 7602,
      "ĠHug": 7603,
      "ĠNavy": 7604,
      "Ġbanged": 7605,
      "Ġpunishment": 7606,
      "Ġhumans": 7607,
      "Ġcrashing": 7608,
      "ĠSof": 7609,
      "Ġhundred": 7610,
      "Ġgest": 7611,
      "ĠBra": 7612,
      "Ġswimmer": 7613,
      "ĠTe": 7614,
      "Ġsnowflakes": 7615,
      "Ġrelaxing": 7616,
      "form": 7617,
      "Ġresisted": 7618,
      "ĠStan": 7619,
      "Ġbeeped": 7620,
      "Ġquarreled": 7621,
      "Ġramp": 7622,
      "elie": 7623,
      "Ġjoins": 7624,
      "ĠStill": 7625,
      "abby": 7626,
      "ĠDina": 7627,
      "Ġbackpacks": 7628,
      "ĠEliz": 7629,
      "Ġdressing": 7630,
      "Ġdelayed": 7631,
      "years": 7632,
      "ĠCr": 7633,
      "Ġtoddler": 7634,
      "Ġflight": 7635,
      "Ġcovering": 7636,
      "ĠAnother": 7637,
      "orter": 7638,
      "Ġbenches": 7639,
      "Quick": 7640,
      "Ġencouragement": 7641,
      "Ġtoward": 7642,
      "ĠMaddy": 7643,
      "Ġscraped": 7644,
      "Open": 7645,
      "Ġfocus": 7646,
      "Ġpurpose": 7647,
      "Ġcorrect": 7648,
      "'.\"": 7649,
      "Ġlipstick": 7650,
      "Ġbamboo": 7651,
      "ider": 7652,
      "Ġpotion": 7653,
      "Ġpermitted": 7654,
      "Ġtwinkled": 7655,
      "Ġmonths": 7656,
      "Ġlanguages": 7657,
      "Ġorders": 7658,
      "Ġfreedom": 7659,
      "Ġmaster": 7660,
      "Ġpoppies": 7661,
      "ĠJudge": 7662,
      "Ġrisks": 7663,
      "ĠMaisy": 7664,
      "shm": 7665,
      "Ġnoodles": 7666,
      "Ġfaded": 7667,
      "ĠBlinky": 7668,
      "Ġwounds": 7669,
      "All": 7670,
      "rier": 7671,
      "ĠLoop": 7672,
      "shmallow": 7673,
      "isions": 7674,
      "Ġbirdhouse": 7675,
      "Ġcreams": 7676,
      "Ġcells": 7677,
      "Ġannoyed": 7678,
      "opes": 7679,
      "Ġcheers": 7680,
      "Ġsniffing": 7681,
      "Ġadults": 7682,
      "Ġunwra": 7683,
      "Ġpuck": 7684,
      "ecca": 7685,
      "Ġfloats": 7686,
      "Ġopinions": 7687,
      "ĠJonny": 7688,
      "ĠSofia": 7689,
      "Ġ5": 7690,
      "andas": 7691,
      "ĠRia": 7692,
      "ĠShelly": 7693,
      "Ġflown": 7694,
      "ĠEva": 7695,
      "Ġscen": 7696,
      "Ġhandsome": 7697,
      "Ġsneezes": 7698,
      "Kids": 7699,
      "Ġnodding": 7700,
      "Ġsmelling": 7701,
      "Ġburnt": 7702,
      "ĠRazor": 7703,
      "Ġdrifted": 7704,
      "bage": 7705,
      "Ġwithin": 7706,
      "Ġheight": 7707,
      "Ġscient": 7708,
      "Ġbothering": 7709,
      "Ġdamaged": 7710,
      "Ġslither": 7711,
      "Ġtearing": 7712,
      "Ġpleaded": 7713,
      "Ġinstruments": 7714,
      "Ġease": 7715,
      "ĠYoga": 7716,
      "Ġscientist": 7717,
      "Ġpound": 7718,
      "ĠSay": 7719,
      "Ġhanding": 7720,
      "Ġseller": 7721,
      "Ġgerm": 7722,
      "Ġwasting": 7723,
      "ĠFlick": 7724,
      "Ġfiles": 7725,
      "Ġdreamt": 7726,
      "Goodnight": 7727,
      "Ġresults": 7728,
      "ĠZippy": 7729,
      "bell": 7730,
      "Ġexplains": 7731,
      "Ġdestroying": 7732,
      "Ġbrushing": 7733,
      "Ġhiss": 7734,
      "ousy": 7735,
      "Ġcharacters": 7736,
      "Ġcertain": 7737,
      "Ġsweaty": 7738,
      "unched": 7739,
      "ĠMegan": 7740,
      "Ġbusiness": 7741,
      "ĠPrince": 7742,
      "In": 7743,
      "ĠHoney": 7744,
      "Ġonward": 7745,
      "ĠFe": 7746,
      "Ġtalents": 7747,
      "Ġbravest": 7748,
      "Ġengines": 7749,
      "ition": 7750,
      "Ġsternly": 7751,
      "Ġswirl": 7752,
      "Ġpostman": 7753,
      "Ġmosquitoes": 7754,
      "prints": 7755,
      "Ġminds": 7756,
      "cake": 7757,
      "under": 7758,
      "Ġtuck": 7759,
      "Ġscares": 7760,
      "ĠRicky": 7761,
      "Ġstomp": 7762,
      "Ġapologised": 7763,
      "Ġmanag": 7764,
      "Ġbitten": 7765,
      "ĠSe": 7766,
      "Ġsnuck": 7767,
      "ĠGerry": 7768,
      "Sn": 7769,
      "uel": 7770,
      "Ġtilted": 7771,
      "Ġswitched": 7772,
      "Ġdecisions": 7773,
      "Ġreminding": 7774,
      "attered": 7775,
      "ĠFrankie": 7776,
      "Ġsingers": 7777,
      "Ġdesper": 7778,
      "ĠShadow": 7779,
      "Ġbehavior": 7780,
      "ashing": 7781,
      "bbers": 7782,
      "Ġsqueaked": 7783,
      "Ġpeeled": 7784,
      "Try": 7785,
      "ĠCari": 7786,
      "inny": 7787,
      "Ġyumm": 7788,
      "Ġpurrs": 7789,
      "ĠMousy": 7790,
      "Ġsmashed": 7791,
      "ĠRuff": 7792,
      "Ġtreated": 7793,
      "Ġdisplayed": 7794,
      "Ġrustling": 7795,
      "Ġneatly": 7796,
      "Ġmatey": 7797,
      "Ġplanting": 7798,
      "An": 7799,
      "Ġmarshmallow": 7800,
      "ĠKaty": 7801,
      "Ġinsp": 7802,
      "Big": 7803,
      "Ġsy": 7804,
      "Ġcracks": 7805,
      "Ġbellies": 7806,
      "Ġyelped": 7807,
      "Ġgrandparents": 7808,
      "aver": 7809,
      "Ġscamp": 7810,
      "ĠNut": 7811,
      "Ġshines": 7812,
      "Ġhoo": 7813,
      "Ġfailed": 7814,
      "Ġcoloring": 7815,
      "ĠFishy": 7816,
      "ĠMake": 7817,
      "ĠLuc": 7818,
      "line": 7819,
      "Ġzooms": 7820,
      "rup": 7821,
      "Ġnasty": 7822,
      "Ġbreathing": 7823,
      "Ġcombed": 7824,
      "Ġpandas": 7825,
      "Ġdespite": 7826,
      "ĠCurious": 7827,
      "Ġaddress": 7828,
      "ĠTri": 7829,
      "ighing": 7830,
      "Ġwaterfall": 7831,
      "ĠCro": 7832,
      "uffin": 7833,
      "Tw": 7834,
      "cc": 7835,
      "Ġrobbers": 7836,
      "Ġantic": 7837,
      "ĠNancy": 7838,
      "Ġwider": 7839,
      "ĠLouise": 7840,
      "ĠIm": 7841,
      "Ġdoorway": 7842,
      "ĠPatty": 7843,
      "Ġsweaters": 7844,
      "Ġechoed": 7845,
      "Ġedges": 7846,
      "omp": 7847,
      "Ġinj": 7848,
      "Ġforce": 7849,
      "Ġgap": 7850,
      "Ġdisobey": 7851,
      "wise": 7852,
      "Ġtar": 7853,
      "ĠRita": 7854,
      "Daisy": 7855,
      "orking": 7856,
      "oscope": 7857,
      "Ġmagnif": 7858,
      "Ġtaped": 7859,
      "father": 7860,
      "Ġaction": 7861,
      "Ġscolds": 7862,
      "Ġflaps": 7863,
      "Ġcrawls": 7864,
      "Ġgobbled": 7865,
      "Ġbacks": 7866,
      "Ġswap": 7867,
      "Ġwarri": 7868,
      "ĠViv": 7869,
      "Ġsteth": 7870,
      "Ġsever": 7871,
      "ĠGl": 7872,
      "Ġcurl": 7873,
      "Ġshinier": 7874,
      "Ġprobably": 7875,
      "Ġnewspapers": 7876,
      "ĠBang": 7877,
      "Ġocc": 7878,
      "ĠKelly": 7879,
      "Ġseveral": 7880,
      "Ġencount": 7881,
      "Wake": 7882,
      "Ġplucked": 7883,
      "Ġquieter": 7884,
      "Ġserving": 7885,
      "ĠShare": 7886,
      "Ġconnected": 7887,
      "tock": 7888,
      "Ġouch": 7889,
      "ĠNurse": 7890,
      "igger": 7891,
      "ĠFlo": 7892,
      "ĠJax": 7893,
      "Ġgesture": 7894,
      "Ġplot": 7895,
      "Ġdoorbell": 7896,
      "Ġstudent": 7897,
      "Ġcares": 7898,
      "Ġsquaw": 7899,
      "ĠBubba": 7900,
      "fire": 7901,
      "ĠJoh": 7902,
      "Ġrescuing": 7903,
      "Ġgrandson": 7904,
      "Ġgoo": 7905,
      "Ġspy": 7906,
      "Ġrows": 7907,
      "Ġsimply": 7908,
      "Ġwhistles": 7909,
      "mies": 7910,
      "ĠBri": 7911,
      "Play": 7912,
      "vant": 7913,
      "Ġshorter": 7914,
      "ĠPl": 7915,
      "Ġsnaps": 7916,
      "Ġastronauts": 7917,
      "Bunny": 7918,
      "ssss": 7919,
      "Ġunpacking": 7920,
      "Ġcottage": 7921,
      "Too": 7922,
      "Ġswo": 7923,
      "Ġaccidents": 7924,
      "For": 7925,
      "Ġmood": 7926,
      "Shrink": 7927,
      "ibi": 7928,
      "Ġswollen": 7929,
      "verse": 7930,
      "ĠKevin": 7931,
      "Zoom": 7932,
      "abelle": 7933,
      "Ġbothered": 7934,
      "ĠMuffin": 7935,
      "aint": 7936,
      "Ġstethoscope": 7937,
      "ĠAr": 7938,
      "ĠElle": 7939,
      "Ġcausing": 7940,
      "Ġtrusting": 7941,
      "ĠWooly": 7942,
      "ĠPhil": 7943,
      "ĠBad": 7944,
      "Ġdresser": 7945,
      "Ġleapt": 7946,
      "Ġsou": 7947,
      "found": 7948,
      "Ġpills": 7949,
      "Ġproper": 7950,
      "retty": 7951,
      "ears": 7952,
      "Ġthroughout": 7953,
      "Magic": 7954,
      "Ġrunner": 7955,
      "Ġprayers": 7956,
      "ĠNe": 7957,
      "Ġjoyful": 7958,
      "what": 7959,
      "ĠReady": 7960,
      "ĠVroom": 7961,
      "mates": 7962,
      "Ġlocks": 7963,
      "ĠWait": 7964,
      "ulp": 7965,
      "Ġgoats": 7966,
      "Ġtarget": 7967,
      "rest": 7968,
      "Ġdears": 7969,
      "ĠToys": 7970,
      "Ġmunch": 7971,
      "Ġflips": 7972,
      "Ġwaddled": 7973,
      "Ġlowered": 7974,
      "ĠPop": 7975,
      "Ġstepping": 7976,
      "ĠStartled": 7977,
      "ĠTaking": 7978,
      "ĠFlop": 7979,
      "Ġcons": 7980,
      "ĠSpeed": 7981,
      "Ġteachers": 7982,
      "Ġcowboy": 7983,
      "ĠDaniel": 7984,
      "Ġinches": 7985,
      "Ġenvelopes": 7986,
      "Ġchar": 7987,
      "ĠElsa": 7988,
      "ĠTy": 7989,
      "Ġexplorer": 7990,
      "Ġanticip": 7991,
      "Ġplayd": 7992,
      "unity": 7993,
      "ening": 7994,
      "ĠFel": 7995,
      "Ġfloors": 7996,
      "Ġknocking": 7997,
      "Ġefforts": 7998,
      "Ġuniforms": 7999,
      "lied": 8000,
      "Ġaware": 8001,
      "Ġfootprints": 8002,
      "Nice": 8003,
      "ĠBumpy": 8004,
      "Ġnearly": 8005,
      "llas": 8006,
      "ĠBibi": 8007,
      "Ġdisc": 8008,
      "Ġsens": 8009,
      "Ġwhimp": 8010,
      "Ġtrot": 8011,
      "Ġglitt": 8012,
      "Ġappreciation": 8013,
      "ĠBecky": 8014,
      "Ġnecks": 8015,
      "Ġchecks": 8016,
      "Ġcollap": 8017,
      "Ġlapt": 8018,
      "Ġexcept": 8019,
      "Ġplug": 8020,
      "ĠMin": 8021,
      "Ġcharge": 8022,
      "rie": 8023,
      "oosh": 8024,
      "ĠRog": 8025,
      "Ġfluttering": 8026,
      "Ġumbrellas": 8027,
      "Ġstamped": 8028,
      "ĠSeeing": 8029,
      "Ġsandcastles": 8030,
      "Ġstatues": 8031,
      "omb": 8032,
      "ails": 8033,
      "Ġshrank": 8034,
      "iscuit": 8035,
      "rily": 8036,
      "Ġfinishing": 8037,
      "Ġprick": 8038,
      "Ġadds": 8039,
      "ĠBiggy": 8040,
      "ĠOt": 8041,
      "rons": 8042,
      "ĠJoan": 8043,
      "Ġchocolates": 8044,
      "Ġhunters": 8045,
      "Ġstroll": 8046,
      "Ġdodged": 8047,
      "Blue": 8048,
      "Ġpassengers": 8049,
      "Ġgerms": 8050,
      "ĠVivi": 8051,
      "Ġwrigg": 8052,
      "Ġaprons": 8053,
      "Ġaisle": 8054,
      "ĠCle": 8055,
      "Ġsets": 8056,
      ".'\"": 8057,
      "Ġweeds": 8058,
      "Ġnovels": 8059,
      "order": 8060,
      "Ġdemanding": 8061,
      "ĠZipper": 8062,
      "Ġscratching": 8063,
      "Ġmeows": 8064,
      "ĠDe": 8065,
      "issa": 8066,
      "Ġnurses": 8067,
      "Ġminding": 8068,
      "Ġdiscussing": 8069,
      "Ġkilled": 8070,
      "urrender": 8071,
      "Ġdriveway": 8072,
      "Ġbecomes": 8073,
      "acy": 8074,
      "Ġhaird": 8075,
      "ĠOh": 8076,
      "ĠJason": 8077,
      "Ġtoolbox": 8078,
      "Ġlaptop": 8079,
      "Ġposit": 8080,
      "Ġattack": 8081,
      "Luna": 8082,
      "So": 8083,
      "sol": 8084,
      "Ġbounces": 8085,
      "Ġscampered": 8086,
      "Ġdeed": 8087,
      "Ġsprays": 8088,
      "Ġsupplied": 8089,
      "ĠSofty": 8090,
      "Ġtempt": 8091,
      "Ġburns": 8092,
      "Ġfriendships": 8093,
      "Ġsuggestion": 8094,
      "Every": 8095,
      "Ġslapping": 8096,
      "Ġclosing": 8097,
      "Arrr": 8098,
      "Ġbelongings": 8099,
      "Ġinvites": 8100,
      "Ġanticipation": 8101,
      "ĠRoger": 8102,
      "Ġform": 8103,
      "ĠEric": 8104,
      "Ġspringing": 8105,
      "Ġerase": 8106,
      "Ġcotton": 8107,
      "Ġrays": 8108,
      "Ġtwists": 8109,
      "ĠNever": 8110,
      "Ġforgives": 8111,
      "Ġsnuggle": 8112,
      "Ġmodels": 8113,
      "ĠVicky": 8114,
      "Ġshall": 8115,
      "ĠJolly": 8116,
      "ĠGus": 8117,
      "Ġhumming": 8118,
      "Ġmassages": 8119,
      "ĠMan": 8120,
      "Ġnewfound": 8121,
      "Ġconc": 8122,
      "Ġresponded": 8123,
      "Ġexpecting": 8124,
      "Ġghosts": 8125,
      "Ġcheated": 8126,
      "Does": 8127,
      "ots": 8128,
      "ĠYawn": 8129,
      "ĠFlutter": 8130,
      "otte": 8131,
      "Ġtraveling": 8132,
      "Ġalthough": 8133,
      "Ġcond": 8134,
      "Ġbattle": 8135,
      "Ġmommies": 8136,
      "alloween": 8137,
      "Friend": 8138,
      "Ġaim": 8139,
      "Ġcarries": 8140,
      "Ġinvitations": 8141,
      "ĠMae": 8142,
      "ĠAg": 8143,
      "Ġrefreshing": 8144,
      "ĠRel": 8145,
      "Ġpresented": 8146,
      "Chirp": 8147,
      "Ġrowed": 8148,
      "Ġtwenty": 8149,
      "ĠGrand": 8150,
      "Ġsquir": 8151,
      "Someone": 8152,
      "ĠBingo": 8153,
      "Jane": 8154,
      "Ġfoxes": 8155,
      "Ġcooper": 8156,
      "Ġfinal": 8157,
      "Ġduckling": 8158,
      "ĠElsie": 8159,
      "ĠZack": 8160,
      "Ġcafe": 8161,
      "ĠGray": 8162,
      "ĠDotty": 8163,
      "Ġmarshmallows": 8164,
      "Ġclicked": 8165,
      "ĠFreddie": 8166,
      "Ġbeaver": 8167,
      "Ġdesigning": 8168,
      "Ġjets": 8169,
      "five": 8170,
      "ĠHalloween": 8171,
      "ĠWhoever": 8172,
      "Ġmugs": 8173,
      "Ġdrown": 8174,
      "po": 8175,
      "onnie": 8176,
      "Ġtricycle": 8177,
      "Ġconvin": 8178,
      "Ġpicnics": 8179,
      "Ġoppos": 8180,
      "iens": 8181,
      "ĠTerry": 8182,
      "inted": 8183,
      "ĠCharlotte": 8184,
      "Un": 8185,
      "Ġcongratul": 8186,
      "Ġscoops": 8187,
      "off": 8188,
      "Ġaliens": 8189,
      "ĠâĢĶ": 8190,
      "Ġtravels": 8191,
      "Ġtests": 8192,
      "Ġquestioned": 8193,
      "ĠLina": 8194,
      "ĠPiggy": 8195,
      "Ġstrips": 8196,
      "ana": 8197,
      "Ġdefe": 8198,
      "covered": 8199,
      "ĠTruck": 8200,
      "hel": 8201,
      "ended": 8202,
      "Ġfights": 8203,
      "ĠChick": 8204,
      "roken": 8205,
      "Ġopposite": 8206,
      "Hmm": 8207,
      "Ġrout": 8208,
      "Ġgrandfather": 8209,
      "Ġafford": 8210,
      "Ġencountered": 8211,
      "Ġdecl": 8212,
      "inch": 8213,
      "Whiskers": 8214,
      "ĠMore": 8215,
      "Ġraising": 8216,
      "iment": 8217,
      "Ġupside": 8218,
      "Ġflashed": 8219,
      "Ġcalmly": 8220,
      "Ġrealizes": 8221,
      "Ġyawning": 8222,
      "Ġsincere": 8223,
      "ĠPlaying": 8224,
      "Find": 8225,
      "Ġbuddy": 8226,
      "ĠWilliam": 8227,
      "Ġcrystals": 8228,
      "aturday": 8229,
      "Ġcupcakes": 8230,
      "Ġbuckled": 8231,
      "ĠMissile": 8232,
      "byes": 8233,
      "ĠFlappy": 8234,
      "Ġwinners": 8235,
      "Ġdefin": 8236,
      "ĠSaturday": 8237,
      "ĠThunder": 8238,
      "ĠQuacky": 8239,
      "',": 8240,
      "Ġcaw": 8241,
      "Ġweapons": 8242,
      "Ġcheat": 8243,
      "shadow": 8244,
      "Ġpackages": 8245,
      "ĠAmanda": 8246,
      "Ġsacks": 8247,
      "Ġgoodbyes": 8248,
      "Ġcoach": 8249,
      "Ġattem": 8250,
      "Choo": 8251,
      "Ġmesses": 8252,
      "quet": 8253,
      "Ġconvers": 8254,
      "ĠNutty": 8255,
      "val": 8256,
      "ĠJet": 8257,
      "Ġcaps": 8258,
      "ĠCook": 8259,
      "Ġenem": 8260,
      "Ġenemies": 8261,
      "Em": 8262,
      "asha": 8263,
      "Ġscrub": 8264,
      "ĠTweety": 8265,
      "Ġyummiest": 8266,
      "Ball": 8267,
      "Ġswallow": 8268,
      "Ġreturning": 8269,
      "Ġadmiration": 8270,
      "romise": 8271,
      "Ġsprout": 8272,
      "Ġunable": 8273,
      "Ġbless": 8274,
      "Ġsadder": 8275,
      "Ġbrightest": 8276,
      "ugging": 8277,
      "Ġfreezing": 8278,
      "Ġrespon": 8279,
      "reverse": 8280,
      "Ġcosy": 8281,
      "Trust": 8282,
      "Ġresponse": 8283,
      "Molly": 8284,
      "His": 8285,
      "iri": 8286,
      "Ġbride": 8287,
      "Ġdiamonds": 8288,
      "stalk": 8289,
      "Ġreapp": 8290,
      "ooks": 8291,
      "Ġgarbage": 8292,
      "Ġhonking": 8293,
      "Ġopport": 8294,
      "Ġstretches": 8295,
      "Ġprevented": 8296,
      "Ġwhispering": 8297,
      "erk": 8298,
      "Ġodd": 8299,
      "Ġwhoever": 8300,
      "antastic": 8301,
      "Ġawful": 8302,
      "alth": 8303,
      "Ġjourneys": 8304,
      "Ġweighs": 8305,
      "Ġawoke": 8306,
      "ĠJean": 8307,
      "Brrr": 8308,
      "Ġdragonfly": 8309,
      "Ġtraps": 8310,
      "ĠShark": 8311,
      "ĠOliv": 8312,
      "Ġspices": 8313,
      "Ġborn": 8314,
      "atty": 8315,
      "ĠFloppy": 8316,
      "Ġclip": 8317,
      "Ġreassured": 8318,
      "Ġstall": 8319,
      "Ġbeanstalk": 8320,
      "Ġargum": 8321,
      "Ġexamining": 8322,
      "Ġbeetles": 8323,
      "Ġautomobiles": 8324,
      "Ġdefinitely": 8325,
      "mine": 8326,
      "ĠTammy": 8327,
      "ĠBub": 8328,
      "ici": 8329,
      "Ġvisitors": 8330,
      "Ġstuffing": 8331,
      "Ġplaydate": 8332,
      "Ġwashes": 8333,
      "ĠAny": 8334,
      "broken": 8335,
      "cie": 8336,
      "Ġwiser": 8337,
      "Ġcustomer": 8338,
      "ĠWolf": 8339,
      "ĠTre": 8340,
      "emma": 8341,
      "uper": 8342,
      "Ġtravelling": 8343,
      "Ġbou": 8344,
      "ĠHello": 8345,
      "Ġhairdress": 8346,
      "Ġbouquet": 8347,
      ",'": 8348,
      "Ġtumbled": 8349,
      "orse": 8350,
      "ĠPick": 8351,
      "ĠJaney": 8352,
      "Ġdecoration": 8353,
      "Ġcampfire": 8354,
      "ĠAmber": 8355,
      "Ġbud": 8356,
      "Ġhonesty": 8357,
      "action": 8358,
      "vy": 8359,
      "Ġbomb": 8360,
      "ĠJumpy": 8361,
      "Ġwelcoming": 8362,
      "Ġoffering": 8363,
      "ĠMagic": 8364,
      "Ġwealth": 8365,
      "Ġtroubles": 8366,
      "Ġincreasing": 8367,
      "Ġoccas": 8368,
      "Ġloudest": 8369,
      "Ġinspired": 8370,
      "Ġparted": 8371,
      "Ġgroan": 8372,
      "Ġtype": 8373,
      "ĠAshley": 8374,
      "Ġwhales": 8375,
      "becca": 8376,
      "ĠMoppy": 8377,
      "ĠRebecca": 8378,
      "ĠHar": 8379,
      "ĠEliza": 8380,
      "Ġdeclared": 8381,
      "Only": 8382,
      "Ġcorrectly": 8383,
      "fus": 8384,
      "ĠFly": 8385,
      "Ġcraft": 8386,
      "Ġbeaks": 8387,
      "Ġcleared": 8388,
      "athan": 8389,
      "ĠSal": 8390,
      "Ġcowboys": 8391,
      "Soon": 8392,
      "ĠGabby": 8393,
      "Ġnuzzled": 8394,
      "ĠSasha": 8395,
      "Ġexch": 8396,
      "Ġwarmly": 8397,
      "Ġprizes": 8398,
      "ĠBrian": 8399,
      "ĠDay": 8400,
      "ĠCici": 8401,
      "Ġrewards": 8402,
      "Ġobeyed": 8403,
      "Ġcustomers": 8404,
      "yl": 8405,
      "ĠSil": 8406,
      "Ġcomforting": 8407,
      "Ġsirens": 8408,
      "da": 8409,
      "ooky": 8410,
      "shaped": 8411,
      "Should": 8412,
      "Ġconnect": 8413,
      "match": 8414,
      "Ġtowns": 8415,
      "ĠRub": 8416,
      "ĠOlivia": 8417,
      "Ġrely": 8418,
      "iolet": 8419,
      "elieve": 8420,
      "Ġfantastic": 8421,
      "Ġtrigger": 8422,
      "Ġowns": 8423,
      "Ġbends": 8424,
      "Ġinsisting": 8425,
      "Ġspoiling": 8426,
      "Ġhairdresser": 8427,
      "Ġpipes": 8428,
      "Ġposes": 8429,
      "Ġshares": 8430,
      "Ġcleans": 8431,
      "Ġsupporting": 8432,
      "Ġsurrendered": 8433,
      "ĠTippy": 8434,
      "ĠBert": 8435,
      "rench": 8436,
      "Ġwrinkled": 8437,
      "Ġchopped": 8438,
      "ĠTyler": 8439,
      "Ġmoons": 8440,
      "Ġrecorder": 8441,
      "Ġbeaming": 8442,
      "Car": 8443,
      "ĠLight": 8444,
      "unes": 8445,
      "ellow": 8446,
      "Ġthanking": 8447,
      "Ġsnowy": 8448,
      "ĠGracie": 8449,
      "Ġscurry": 8450,
      "ĠPine": 8451,
      "Ġenjoyable": 8452,
      "Ġactive": 8453,
      "ĠStep": 8454,
      "Ġexperien": 8455,
      "Ġcoral": 8456,
      "ĠBaa": 8457,
      "Ġdollar": 8458,
      "Ġenviron": 8459,
      "worm": 8460,
      "elope": 8461,
      "Ġloc": 8462,
      "Ġstreamers": 8463,
      "bble": 8464,
      "udged": 8465,
      "ĠSweet": 8466,
      "inger": 8467,
      "Ġexamp": 8468,
      "ĠTwist": 8469,
      "Ġshorts": 8470,
      "Ġshooed": 8471,
      "Ġenvironment": 8472,
      "Ġill": 8473,
      "Ġscent": 8474,
      "Ġbruises": 8475,
      "oor": 8476,
      "uster": 8477,
      "Ġgrat": 8478,
      "ĠHopper": 8479,
      "Ġhisses": 8480,
      "ĠJoke": 8481,
      "Ġplugged": 8482,
      "acle": 8483,
      "Ġself": 8484,
      "Ġsteering": 8485,
      "ĠPretty": 8486,
      "Ġwarrior": 8487,
      "Ġvisits": 8488,
      "Ġexercises": 8489,
      "ĠMonkey": 8490,
      "over": 8491,
      "aptain": 8492,
      "Ġdangers": 8493,
      "Ġcuddles": 8494,
      "Ġsigning": 8495,
      "Ġunfortunately": 8496,
      "Ġsquished": 8497,
      "screen": 8498,
      "Ġdisappoint": 8499,
      "bee": 8500,
      "Ġpilots": 8501,
      "munk": 8502,
      "ĠNora": 8503,
      "Ġapplauding": 8504,
      "Ġgratitude": 8505,
      "alf": 8506,
      "ĠWil": 8507,
      "Ġproviding": 8508,
      "Ġting": 8509,
      "Ġtickles": 8510,
      "Ġbadger": 8511,
      "Ġnights": 8512,
      "Ġjud": 8513,
      "Ġstorms": 8514,
      "Ġconvinced": 8515,
      "Ġyoun": 8516,
      "Ġresponsib": 8517,
      "Ġchoosing": 8518,
      "Ġbrains": 8519,
      "Ġactivity": 8520,
      "Ġnearest": 8521,
      "Ġyoungest": 8522,
      "Ġexploded": 8523,
      "Ġarranged": 8524,
      "Ġcoughed": 8525,
      "Bella": 8526,
      "ĠOff": 8527,
      "Ġrewarding": 8528,
      "ĠAuntie": 8529,
      "good": 8530,
      "Ġbond": 8531,
      "Ġsunscreen": 8532,
      "Ġpeep": 8533,
      "erpiece": 8534,
      "ĠRufus": 8535,
      "Tree": 8536,
      "asers": 8537,
      "Ollie": 8538,
      "ĠFort": 8539,
      "ilities": 8540,
      "Ġannoying": 8541,
      "Grow": 8542,
      "sn": 8543,
      "ĠFlora": 8544,
      "Ġsoapy": 8545,
      "ĠBerry": 8546,
      "meow": 8547,
      "ĠTessa": 8548,
      "Ġlaces": 8549,
      "Ġrails": 8550,
      "Ġtapping": 8551,
      "Ġoffic": 8552,
      "Ġthreads": 8553,
      "Ġappreciated": 8554,
      "ĠHelen": 8555,
      "Ġweighing": 8556,
      "ĠCally": 8557,
      "boards": 8558,
      "Ġheartbroken": 8559,
      "Ġemerged": 8560,
      "Ġcongratulated": 8561,
      "ĠMicroscope": 8562,
      "Bear": 8563,
      "Danger": 8564,
      "Ġtin": 8565,
      "ĠTomorrow": 8566,
      "Ġclerk": 8567,
      "ĠGilly": 8568,
      "Ġcrocodiles": 8569,
      "Ġscram": 8570,
      "Ġattempt": 8571,
      "water": 8572,
      "Ġdial": 8573,
      "Ġsnug": 8574,
      "Ġmessed": 8575,
      "Ahoy": 8576,
      "Ġexample": 8577,
      "ĠJenn": 8578,
      "Ġhooks": 8579,
      "Ġtops": 8580,
      "Ġchipmunk": 8581,
      "Ġsoot": 8582,
      "Ġbathed": 8583,
      "Ġguarding": 8584,
      "Sarah": 8585,
      "ĠPenelope": 8586,
      "Ġmanager": 8587,
      "Pe": 8588,
      "ĠFortunately": 8589,
      "etah": 8590,
      "Ġmasterpiece": 8591,
      "ending": 8592,
      "ĠMart": 8593,
      "Ġerasers": 8594,
      "Ġfet": 8595,
      "Ġfinishes": 8596,
      "Ġtips": 8597,
      "Ġcommon": 8598,
      "ĠFelix": 8599,
      "Ġmemb": 8600,
      "Ġdigs": 8601,
      "Ġnibbled": 8602,
      "Ġtrotted": 8603,
      "Ġmembers": 8604,
      "ĠSet": 8605,
      "ĠFay": 8606,
      "Ġkinder": 8607,
      "Ġcheetah": 8608,
      "Ġexpert": 8609,
      "Ġblond": 8610,
      "Ġchews": 8611,
      "ĠPeggy": 8612,
      "Ġparticularly": 8613,
      "ircle": 8614,
      "Ġbeast": 8615,
      "Ġrips": 8616,
      "ĠRiri": 8617,
      "Ġargument": 8618,
      "ative": 8619,
      "Ġfaith": 8620,
      "ĠHelping": 8621,
      "Ab": 8622,
      "ĠSuper": 8623,
      "ĠAndrew": 8624,
      "Ġearned": 8625,
      "Ġobserving": 8626,
      "Ġforgiveness": 8627,
      "Ġcheaper": 8628,
      "Ġmischie": 8629,
      "Ġfishes": 8630,
      "Ġinstantly": 8631,
      "Ġexperienced": 8632,
      "Ġcages": 8633,
      "Ġgenerosity": 8634,
      "Ġmischievous": 8635,
      "Ġfoam": 8636,
      "Ġmeowing": 8637,
      "Mark": 8638,
      "mered": 8639,
      "ĠBarry": 8640,
      "ĠBuster": 8641,
      "Ġstores": 8642,
      "Ġgrandd": 8643,
      "ĠExcitedly": 8644,
      "Friends": 8645,
      "Ġmattered": 8646,
      "etchup": 8647,
      "Ġlimp": 8648,
      "Ġpasses": 8649,
      "ĠIce": 8650,
      "ĠCaptain": 8651,
      "Ġteles": 8652,
      "Ġsleeps": 8653,
      "ĠFle": 8654,
      "ĠPuffy": 8655,
      "Ġbreaths": 8656,
      "Ġrin": 8657,
      "ordinary": 8658,
      "Ġgasps": 8659,
      "ĠGill": 8660,
      "Got": 8661,
      "Ġrumbling": 8662,
      "Ġtrans": 8663,
      "Ġhatch": 8664,
      "ĠZog": 8665,
      "ĠMatilda": 8666,
      "abra": 8667,
      "Ġgrassho": 8668,
      "Ġsatisf": 8669,
      "Ġaccomplished": 8670,
      "Ġthump": 8671,
      "Ġstrum": 8672,
      "acing": 8673,
      "Ġmats": 8674,
      "Ġsmartest": 8675,
      "Ġtelescope": 8676,
      "Ġwhined": 8677,
      "ĠBobbie": 8678,
      "Ġmoat": 8679,
      "Ġjugg": 8680,
      "Ġfarmers": 8681,
      "Ġscrambled": 8682,
      "ĠMila": 8683,
      "Ġdrip": 8684,
      "Ġgardens": 8685,
      "Ġangrily": 8686,
      "Ġsyrup": 8687,
      "Ġcollapsed": 8688,
      "ouraged": 8689,
      "idey": 8690,
      "Ġforests": 8691,
      "Ġvegg": 8692,
      "Ġdiscoveries": 8693,
      "Ġstyles": 8694,
      "Ġexperiences": 8695,
      "Ġtor": 8696,
      "ĠTiger": 8697,
      "Ġfaint": 8698,
      "ering": 8699,
      "Ġmedals": 8700,
      "ĠCloud": 8701,
      "hole": 8702,
      "Chirpy": 8703,
      "Ġmeaning": 8704,
      "ĠDoes": 8705,
      "Ġconqu": 8706,
      "Ġcourt": 8707,
      "Ġotters": 8708,
      "Ġtypes": 8709,
      "pit": 8710,
      "Ġfif": 8711,
      "ĠLy": 8712,
      "adabra": 8713,
      "ĠWaff": 8714,
      "Ġsnapping": 8715,
      "Ġhardest": 8716,
      "acock": 8717,
      "Ġmovements": 8718,
      "Ġexpression": 8719,
      "Ġchilly": 8720,
      "ĠPig": 8721,
      "acles": 8722,
      "Ġbubbly": 8723,
      "Ġsurv": 8724,
      "Ġaffect": 8725,
      "ĠOtto": 8726,
      "Ġvests": 8727,
      "Ġunfair": 8728,
      "Ġtoothbrush": 8729,
      "Ġextraordinary": 8730,
      "Ġscores": 8731,
      "Ġmir": 8732,
      "ĠApp": 8733,
      "ĠButter": 8734,
      "Ġattitude": 8735,
      "ĠPeep": 8736,
      "Teddy": 8737,
      "Ġbluebird": 8738,
      "Ġhorri": 8739,
      "Ġvibr": 8740,
      "Once": 8741,
      "ĠPinch": 8742,
      "ĠRainbow": 8743,
      "mel": 8744,
      "lls": 8745,
      "Ġketchup": 8746,
      "ĠRight": 8747,
      "Ġspears": 8748,
      "Ġsooner": 8749,
      "Ġbehaviour": 8750,
      "Ġgrasshopper": 8751,
      "Ġhabit": 8752,
      "Ġpatches": 8753,
      "Ġmomma": 8754,
      "Ġafar": 8755,
      "Remy": 8756,
      "Ġpokes": 8757,
      "ĠLife": 8758,
      "ĠGold": 8759,
      "Ġthie": 8760,
      "Ġscri": 8761,
      "Ġthicker": 8762,
      "Ġicky": 8763,
      "Ġshrunk": 8764,
      "Ġclassmates": 8765,
      "Ġsqueezes": 8766,
      "Ġslithered": 8767,
      "ĠRosa": 8768,
      "Ġglittering": 8769,
      "Ġprickly": 8770,
      "Joe": 8771,
      "ĠBonnie": 8772,
      "Ġtopp": 8773,
      "Ġkneeling": 8774,
      "Ġannounced": 8775,
      "elling": 8776,
      "Ġpeacock": 8777,
      "plash": 8778,
      "Ġmarking": 8779,
      "ĠSand": 8780,
      "lt": 8781,
      "ĠSir": 8782,
      "ĠAchoo": 8783,
      "ctric": 8784,
      "Ġcosts": 8785,
      "ĠMelissa": 8786,
      "ĠAc": 8787,
      "Ġwatermel": 8788,
      "Ġzigzags": 8789,
      "ĠMixie": 8790,
      "Ġthieves": 8791,
      "Ġhood": 8792,
      "ĠLung": 8793,
      "Ġjumper": 8794,
      "Ġacts": 8795,
      "Ġskirts": 8796,
      "ĠSilver": 8797,
      "ĠSpidey": 8798,
      "Ġwolves": 8799,
      "Ġcocoon": 8800,
      "ĠAnnabelle": 8801,
      "Ġdrift": 8802,
      "Ġsqueaky": 8803,
      "Ġthumbs": 8804,
      "ĠAnimal": 8805,
      "Jimmy": 8806,
      "Ġboards": 8807,
      "ĠJelly": 8808,
      "ĠEd": 8809,
      "Ġwoodcut": 8810,
      "ounce": 8811,
      "Ġservant": 8812,
      "Baa": 8813,
      "idence": 8814,
      "Ġcheating": 8815,
      "ĠRiley": 8816,
      "bu": 8817,
      "cat": 8818,
      "lo": 8819,
      "Ġraking": 8820,
      "Ġtrading": 8821,
      "ĠMine": 8822,
      "ĠMath": 8823,
      "Ġexplaining": 8824,
      "Leo": 8825,
      "Ġbiscuit": 8826,
      "Ġtidied": 8827,
      "Ġluckily": 8828,
      "Ġlunchtime": 8829,
      "anced": 8830,
      "idy": 8831,
      "ĠInky": 8832,
      "Ġspilling": 8833,
      "Honey": 8834,
      "ĠUse": 8835,
      "ĠPaula": 8836,
      "ĠMonster": 8837,
      "Ġconcer": 8838,
      "Ġdesserts": 8839,
      "Ġtransform": 8840,
      "ror": 8841,
      "ĠLi": 8842,
      "âĢ¦": 8843,
      "ĠKy": 8844,
      "rough": 8845,
      "its": 8846,
      "Ġmessages": 8847,
      "Ġbeating": 8848,
      "Ġchill": 8849,
      "Ġwindowsill": 8850,
      "Mouse": 8851,
      "ĠBoom": 8852,
      "Ġseeking": 8853,
      "Ġactor": 8854,
      "amma": 8855,
      "sess": 8856,
      "ĠHi": 8857,
      "Ġforeshadow": 8858,
      "pril": 8859,
      "Never": 8860,
      "war": 8861,
      "Ġleans": 8862,
      "ĠCarla": 8863,
      "Ġhissing": 8864,
      "Ġflashing": 8865,
      "ĠJose": 8866,
      "Ġdev": 8867,
      "Ġcloths": 8868,
      "racadabra": 8869,
      "Ġwatermelon": 8870,
      "Ġfunn": 8871,
      "Ġteap": 8872,
      "Ġwinding": 8873,
      "Ġdiscouraged": 8874,
      "Ġpositive": 8875,
      "pop": 8876,
      "Ġdripped": 8877,
      "Ġcompete": 8878,
      "Ġforts": 8879,
      "ĠYummy": 8880,
      "ĠFeel": 8881,
      "Ġwoodcutter": 8882,
      "Ġpressing": 8883,
      "Ġdisagreeing": 8884,
      "Fire": 8885,
      "Freeze": 8886,
      "Ġglimmering": 8887,
      "ĠTooth": 8888,
      "Ġtidying": 8889,
      "Ġtrusts": 8890,
      "Ġkangaroos": 8891,
      "Ġveggies": 8892,
      "Ġlanding": 8893,
      "Ġtempted": 8894,
      "ĠBoat": 8895,
      "Ġdock": 8896,
      "icking": 8897,
      "ĠPeace": 8898,
      "lers": 8899,
      "Ġformed": 8900,
      "Ġshallow": 8901,
      "Ġoverw": 8902,
      "ĠChip": 8903,
      "ĠSteven": 8904,
      "ĠSlinky": 8905,
      "Ġteapot": 8906,
      "Ġ4": 8907,
      "Ġfade": 8908,
      "Ġrack": 8909,
      "ĠRatty": 8910,
      "flowers": 8911,
      "Ġworst": 8912,
      "Ġelectric": 8913,
      "Ġcops": 8914,
      "Ġapology": 8915,
      "creams": 8916,
      "ĠSqueak": 8917,
      "Grandpa": 8918,
      "Ġsleds": 8919,
      "Ġass": 8920,
      "upid": 8921,
      "Ġcomets": 8922,
      "Ġsav": 8923,
      "ĠCircle": 8924,
      "Ġpapa": 8925,
      "ĠHurry": 8926,
      "Ġsituations": 8927,
      "Ġconversation": 8928,
      "Ġofficers": 8929,
      "ĠWaffle": 8930,
      "ĠTip": 8931,
      "Ġslee": 8932,
      "ĠWoolly": 8933,
      "Sun": 8934,
      "Ġding": 8935,
      "storm": 8936,
      "Ġsuns": 8937,
      "âĢĿ,": 8938,
      "Ġpizzas": 8939,
      "Ġzips": 8940,
      "Ġmiller": 8941,
      "Ġstructures": 8942,
      "Ġscurrying": 8943,
      "Ġoverwhel": 8944,
      "Ġfoggy": 8945,
      "ĠSnake": 8946,
      "Ġgranddaughter": 8947,
      "ĠApril": 8948,
      "ĠBirds": 8949,
      "Ġwebs": 8950,
      "Ġdeserved": 8951,
      "ĠTra": 8952,
      "Ġcubs": 8953,
      "Ġopportunity": 8954,
      "ĠFaye": 8955,
      "iving": 8956,
      "Ġsnorted": 8957,
      "ĠRavi": 8958,
      "Ġrhino": 8959,
      "ĠYellow": 8960,
      "Ġdifferences": 8961,
      "ĠTell": 8962,
      "Ġquacking": 8963,
      "ĠImmediately": 8964,
      "oot": 8965,
      "Ġheaven": 8966,
      "ifully": 8967,
      "Ġinter": 8968,
      "Ġlevers": 8969,
      "Ġunlo": 8970,
      "Ġinchworm": 8971,
      "Jill": 8972,
      "ĠSmoke": 8973,
      "Ġapproach": 8974,
      "ssess": 8975,
      "Ġpossess": 8976,
      "ĠMole": 8977,
      "ĠMona": 8978,
      "Ġseagulls": 8979,
      "Ġcooperate": 8980,
      "sers": 8981,
      "ĠEver": 8982,
      "?âĢĿ.": 8983,
      "welcome": 8984,
      "ragon": 8985,
      "ĠFlopsy": 8986,
      "ĠOver": 8987,
      "Ġpose": 8988,
      "Ġdisappointment": 8989,
      "Ġdep": 8990,
      "ĠCars": 8991,
      "Ġspeaks": 8992,
      "Ġbinoc": 8993,
      "Ġsneaks": 8994,
      "sie": 8995,
      "Ġartwork": 8996,
      "snap": 8997,
      "Ġscowl": 8998,
      "Ġanswering": 8999,
      "Ġsurfed": 9000,
      "ĠLiza": 9001,
      "Rock": 9002,
      "Ġshortcut": 9003,
      "ĠViolet": 9004,
      "Ġsipped": 9005,
      "ĠCandy": 9006,
      "Ġrobin": 9007,
      "rick": 9008,
      "ssy": 9009,
      "Ġarrest": 9010,
      "ĠMus": 9011,
      "Ġreun": 9012,
      "Ġamused": 9013,
      "Ġribbit": 9014,
      "Ġunwrapped": 9015,
      "ugar": 9016,
      "Ġpepperoni": 9017,
      "Ġrepeats": 9018,
      "Ġapplause": 9019,
      "Ġkeyhole": 9020,
      "Ġcheckout": 9021,
      "Deal": 9022,
      "Ġvisitor": 9023,
      "Ġstriking": 9024,
      "Ġpaddling": 9025,
      "Ġpuppets": 9026,
      "Eat": 9027,
      "Ġunz": 9028,
      "Ġattacked": 9029,
      "Ġcroaked": 9030,
      "ĠBeef": 9031,
      "Ġspooky": 9032,
      "orsie": 9033,
      "uses": 9034,
      "ĠCon": 9035,
      "Ġbeautifully": 9036,
      "Ġgroaned": 9037,
      "gar": 9038,
      "cidents": 9039,
      "Ġchecking": 9040,
      "Ġswimsuits": 9041,
      "Ġconsider": 9042,
      "ĠMarch": 9043,
      "jest": 9044,
      "Ġgroom": 9045,
      "Ġwaters": 9046,
      "Lisa": 9047,
      "Ġinvent": 9048,
      "ĠLiam": 9049,
      "ĠJody": 9050,
      "otion": 9051,
      "Ġnets": 9052,
      "Ġexams": 9053,
      "ĠFind": 9054,
      "ĠRing": 9055,
      "Ġdrying": 9056,
      "Ġlump": 9057,
      "agine": 9058,
      "ĠCammy": 9059,
      "ĠJanet": 9060,
      "Ġshrugs": 9061,
      "Climb": 9062,
      "lest": 9063,
      "Ġsobbing": 9064,
      "Ġshyly": 9065,
      "Ġcheerfully": 9066,
      "Ġshoots": 9067,
      "Ġheels": 9068,
      "Ġhonks": 9069,
      "ĠBubu": 9070,
      "ili": 9071,
      "esses": 9072,
      "Ġshh": 9073,
      "Ġchin": 9074,
      "ĠDoug": 9075,
      "Emma": 9076,
      "anish": 9077,
      "ĠHorsie": 9078,
      "ĠGlow": 9079,
      "Ġhangs": 9080,
      "Ġhealthier": 9081,
      "Ġwhimpered": 9082,
      "icious": 9083,
      "Ġcaterpillars": 9084,
      "Ġfries": 9085,
      "Ġsquinted": 9086,
      "izzes": 9087,
      "Ġmagnifying": 9088,
      "Ġblamed": 9089,
      "Ġfascinating": 9090,
      "Ġsculp": 9091,
      "Ġtablet": 9092,
      "Ġfrustration": 9093,
      "Ġsculpture": 9094,
      "ouched": 9095,
      "Ġshimmering": 9096,
      "ĠThrough": 9097,
      "ĠHeli": 9098,
      "ĠMartin": 9099,
      "Ġposs": 9100,
      "Ġsuck": 9101,
      "edic": 9102,
      "ĠOld": 9103,
      "Ġnumbered": 9104,
      "Ġpleas": 9105,
      "ĠJohny": 9106,
      "ĠOxy": 9107,
      "ĠBa": 9108,
      "ĠPast": 9109,
      "Ġnibble": 9110,
      "ĠAlf": 9111,
      "ellie": 9112,
      "othy": 9113,
      "Ġflowing": 9114,
      "Ġbaa": 9115,
      "hings": 9116,
      "Ġgrumbled": 9117,
      "Ġraked": 9118,
      "oll": 9119,
      "Ġbuilder": 9120,
      "emy": 9121,
      "that": 9122,
      "Ġfacing": 9123,
      "Ġguards": 9124,
      "Ġpetting": 9125,
      "ĠLooking": 9126,
      "Ġswaying": 9127,
      "racted": 9128,
      "ĠFeeling": 9129,
      "ĠMatch": 9130,
      "Ġmysteries": 9131,
      "Ġsprinkle": 9132,
      "Ġdetails": 9133,
      "Ġflock": 9134,
      "Ġsnort": 9135,
      "Ġenemy": 9136,
      "eat": 9137,
      "amil": 9138,
      "ĠBun": 9139,
      "Ġgoodies": 9140,
      "ĠWhite": 9141,
      "Ġtextures": 9142,
      "Ġwig": 9143,
      "Ġpopping": 9144,
      "ulars": 9145,
      "ĠJohnson": 9146,
      "Ġcrops": 9147,
      "Ġmarve": 9148,
      "Ġcountries": 9149,
      "Ġfans": 9150,
      "Ġwildflowers": 9151,
      "Ġstacks": 9152,
      "how": 9153,
      "Ġknobs": 9154,
      "ĠQuickly": 9155,
      "Any": 9156,
      "Ġbushy": 9157,
      "Ġlocal": 9158,
      "Ġstew": 9159,
      "Ġbowing": 9160,
      "Ġangrier": 9161,
      "Ġhunting": 9162,
      "Sharing": 9163,
      "Ġdrowned": 9164,
      "Ġpeeped": 9165,
      "Ġbinoculars": 9166,
      "Ġmaps": 9167,
      "Ġniece": 9168,
      "Ġquizzes": 9169,
      "Ġmoonlight": 9170,
      "ĠDeal": 9171,
      "Ġoutfits": 9172,
      "ĠSleepy": 9173,
      "ĠTriangle": 9174,
      "OO": 9175,
      "Ġwrench": 9176,
      "ĠIcy": 9177,
      "Ġwhoosh": 9178,
      "Ġweaker": 9179,
      "Ġmindful": 9180,
      "Ġcrowded": 9181,
      "Ġendings": 9182,
      "ĠKn": 9183,
      "cycles": 9184,
      "ĠCoal": 9185,
      "Ġflashes": 9186,
      "ĠCut": 9187,
      "ĠCare": 9188,
      "Ġhesitation": 9189,
      "ĠWonder": 9190,
      "Ġproperty": 9191,
      "Ġboil": 9192,
      "ĠFix": 9193,
      "ĠSpicy": 9194,
      "Ġability": 9195,
[...]
